#include "written-digit-recognition-cnn-8bit.h"

const unsigned char written_digit_recognition_cnn_8bit_tflite[] = {
  0x1c, 0x00, 0x00, 0x00, 0x54, 0x46, 0x4c, 0x33, 0x14, 0x00, 0x20, 0x00,
  0x1c, 0x00, 0x18, 0x00, 0x14, 0x00, 0x10, 0x00, 0x0c, 0x00, 0x00, 0x00,
  0x08, 0x00, 0x04, 0x00, 0x14, 0x00, 0x00, 0x00, 0x1c, 0x00, 0x00, 0x00,
  0x94, 0x00, 0x00, 0x00, 0xec, 0x00, 0x00, 0x00, 0x7c, 0x16, 0x00, 0x00,
  0x8c, 0x16, 0x00, 0x00, 0x44, 0x28, 0x00, 0x00, 0x03, 0x00, 0x00, 0x00,
  0x01, 0x00, 0x00, 0x00, 0x10, 0x00, 0x00, 0x00, 0x00, 0x00, 0x0a, 0x00,
  0x10, 0x00, 0x0c, 0x00, 0x08, 0x00, 0x04, 0x00, 0x0a, 0x00, 0x00, 0x00,
  0x0c, 0x00, 0x00, 0x00, 0x1c, 0x00, 0x00, 0x00, 0x38, 0x00, 0x00, 0x00,
  0x0f, 0x00, 0x00, 0x00, 0x73, 0x65, 0x72, 0x76, 0x69, 0x6e, 0x67, 0x5f,
  0x64, 0x65, 0x66, 0x61, 0x75, 0x6c, 0x74, 0x00, 0x01, 0x00, 0x00, 0x00,
  0x04, 0x00, 0x00, 0x00, 0x94, 0xff, 0xff, 0xff, 0x12, 0x00, 0x00, 0x00,
  0x04, 0x00, 0x00, 0x00, 0x05, 0x00, 0x00, 0x00, 0x64, 0x65, 0x6e, 0x73,
  0x65, 0x00, 0x00, 0x00, 0x01, 0x00, 0x00, 0x00, 0x04, 0x00, 0x00, 0x00,
  0x46, 0xe9, 0xff, 0xff, 0x04, 0x00, 0x00, 0x00, 0x0c, 0x00, 0x00, 0x00,
  0x63, 0x6f, 0x6e, 0x76, 0x32, 0x64, 0x5f, 0x69, 0x6e, 0x70, 0x75, 0x74,
  0x00, 0x00, 0x00, 0x00, 0x02, 0x00, 0x00, 0x00, 0x34, 0x00, 0x00, 0x00,
  0x04, 0x00, 0x00, 0x00, 0xdc, 0xff, 0xff, 0xff, 0x15, 0x00, 0x00, 0x00,
  0x04, 0x00, 0x00, 0x00, 0x13, 0x00, 0x00, 0x00, 0x43, 0x4f, 0x4e, 0x56,
  0x45, 0x52, 0x53, 0x49, 0x4f, 0x4e, 0x5f, 0x4d, 0x45, 0x54, 0x41, 0x44,
  0x41, 0x54, 0x41, 0x00, 0x08, 0x00, 0x0c, 0x00, 0x08, 0x00, 0x04, 0x00,
  0x08, 0x00, 0x00, 0x00, 0x14, 0x00, 0x00, 0x00, 0x04, 0x00, 0x00, 0x00,
  0x13, 0x00, 0x00, 0x00, 0x6d, 0x69, 0x6e, 0x5f, 0x72, 0x75, 0x6e, 0x74,
  0x69, 0x6d, 0x65, 0x5f, 0x76, 0x65, 0x72, 0x73, 0x69, 0x6f, 0x6e, 0x00,
  0x16, 0x00, 0x00, 0x00, 0x8c, 0x15, 0x00, 0x00, 0x84, 0x15, 0x00, 0x00,
  0x6c, 0x15, 0x00, 0x00, 0x34, 0x15, 0x00, 0x00, 0x84, 0x14, 0x00, 0x00,
  0x34, 0x14, 0x00, 0x00, 0x24, 0x0b, 0x00, 0x00, 0xd4, 0x0a, 0x00, 0x00,
  0xc4, 0x01, 0x00, 0x00, 0x74, 0x01, 0x00, 0x00, 0xd4, 0x00, 0x00, 0x00,
  0xcc, 0x00, 0x00, 0x00, 0xc4, 0x00, 0x00, 0x00, 0xbc, 0x00, 0x00, 0x00,
  0xb4, 0x00, 0x00, 0x00, 0xac, 0x00, 0x00, 0x00, 0xa4, 0x00, 0x00, 0x00,
  0x9c, 0x00, 0x00, 0x00, 0x94, 0x00, 0x00, 0x00, 0x8c, 0x00, 0x00, 0x00,
  0x6c, 0x00, 0x00, 0x00, 0x04, 0x00, 0x00, 0x00, 0x1a, 0xea, 0xff, 0xff,
  0x04, 0x00, 0x00, 0x00, 0x58, 0x00, 0x00, 0x00, 0x0c, 0x00, 0x00, 0x00,
  0x08, 0x00, 0x0e, 0x00, 0x08, 0x00, 0x04, 0x00, 0x08, 0x00, 0x00, 0x00,
  0x10, 0x00, 0x00, 0x00, 0x28, 0x00, 0x00, 0x00, 0x00, 0x00, 0x06, 0x00,
  0x08, 0x00, 0x04, 0x00, 0x06, 0x00, 0x00, 0x00, 0x04, 0x00, 0x00, 0x00,
  0x01, 0x00, 0x00, 0x00, 0xeb, 0x03, 0x00, 0x00, 0x00, 0x00, 0x0a, 0x00,
  0x10, 0x00, 0x0c, 0x00, 0x08, 0x00, 0x04, 0x00, 0x0a, 0x00, 0x00, 0x00,
  0x02, 0x00, 0x00, 0x00, 0x02, 0x00, 0x00, 0x00, 0x04, 0x00, 0x00, 0x00,
  0x06, 0x00, 0x00, 0x00, 0x32, 0x2e, 0x31, 0x32, 0x2e, 0x30, 0x00, 0x00,
  0x7e, 0xea, 0xff, 0xff, 0x04, 0x00, 0x00, 0x00, 0x10, 0x00, 0x00, 0x00,
  0x31, 0x2e, 0x31, 0x34, 0x2e, 0x30, 0x00, 0x00, 0x00, 0x00, 0x00, 0x00,
  0x00, 0x00, 0x00, 0x00, 0x78, 0xda, 0xff, 0xff, 0x7c, 0xda, 0xff, 0xff,
  0x80, 0xda, 0xff, 0xff, 0x84, 0xda, 0xff, 0xff, 0x88, 0xda, 0xff, 0xff,
  0x8c, 0xda, 0xff, 0xff, 0x90, 0xda, 0xff, 0xff, 0x94, 0xda, 0xff, 0xff,
  0x98, 0xda, 0xff, 0xff, 0xbe, 0xea, 0xff, 0xff, 0x04, 0x00, 0x00, 0x00,
  0x90, 0x00, 0x00, 0x00, 0x9e, 0x81, 0xda, 0xd7, 0x34, 0x59, 0x11, 0x5c,
  0x25, 0xb0, 0x82, 0xca, 0x4e, 0x10, 0x81, 0x57, 0x23, 0x94, 0x3a, 0x7f,
  0x35, 0x72, 0x4f, 0xc3, 0xb2, 0x92, 0x81, 0x58, 0x09, 0xf6, 0x07, 0x81,
  0xf6, 0xb1, 0x01, 0x50, 0x81, 0xb5, 0xb4, 0x03, 0x00, 0xe3, 0xf8, 0x00,
  0x00, 0xe4, 0x90, 0x81, 0x47, 0x6e, 0x6d, 0x05, 0xf6, 0xf2, 0xd8, 0x1f,
  0x38, 0xd1, 0xed, 0xe6, 0x81, 0xb7, 0xa5, 0x30, 0x2b, 0x98, 0x7f, 0x5a,
  0x18, 0x5d, 0x26, 0x51, 0xef, 0x07, 0x02, 0x02, 0x94, 0x94, 0x08, 0x4b,
  0x7f, 0xf9, 0x0a, 0x40, 0xa6, 0x81, 0xb0, 0x68, 0x1c, 0xe5, 0xc6, 0xdb,
  0x37, 0xaa, 0xeb, 0x7f, 0xb5, 0x03, 0x48, 0x0b, 0x4a, 0x4e, 0xce, 0x1e,
  0x5f, 0x81, 0xa4, 0xef, 0xdb, 0x71, 0xb8, 0xbe, 0x7f, 0xbf, 0xed, 0x7a,
  0xab, 0x39, 0xdb, 0x81, 0x54, 0x14, 0xce, 0x20, 0x16, 0x0c, 0x81, 0x1a,
  0x27, 0x19, 0x7e, 0x19, 0x19, 0xd5, 0xdc, 0x55, 0xf4, 0xac, 0x5f, 0xf6,
  0xb4, 0x02, 0x97, 0x81, 0x5a, 0xeb, 0xff, 0xff, 0x04, 0x00, 0x00, 0x00,
  0x40, 0x00, 0x00, 0x00, 0x79, 0xfe, 0xff, 0xff, 0xc2, 0x14, 0x00, 0x00,
  0x6f, 0x18, 0x00, 0x00, 0x2d, 0x14, 0x00, 0x00, 0x49, 0x34, 0x00, 0x00,
  0x11, 0xf6, 0xff, 0xff, 0x2f, 0x3b, 0x00, 0x00, 0x52, 0xaa, 0xff, 0xff,
  0xfe, 0xfd, 0xff, 0xff, 0x61, 0x0c, 0x00, 0x00, 0xd4, 0xfb, 0xff, 0xff,
  0xfa, 0xfd, 0xff, 0xff, 0xd4, 0xde, 0xff, 0xff, 0x79, 0xfe, 0xff, 0xff,
  0xfe, 0xd0, 0xff, 0xff, 0xb4, 0x17, 0x00, 0x00, 0xa6, 0xeb, 0xff, 0xff,
  0x04, 0x00, 0x00, 0x00, 0x00, 0x09, 0x00, 0x00, 0xfe, 0x24, 0xc4, 0xf4,
  0x34, 0xe3, 0xef, 0xe3, 0xfc, 0xdf, 0x35, 0xed, 0x23, 0x16, 0xe9, 0x3e,
  0xfe, 0xc3, 0xe9, 0xf0, 0xc9, 0x10, 0x00, 0xf7, 0x1f, 0xf8, 0x0e, 0x03,
  0x18, 0x06, 0x01, 0xfb, 0x08, 0xb6, 0xfa, 0xef, 0x81, 0x17, 0xe5, 0xf5,
  0x16, 0xc3, 0x10, 0x0b, 0x05, 0xe4, 0x09, 0x0c, 0xeb, 0xff, 0xc6, 0xfc,
  0x0f, 0xde, 0x32, 0xdc, 0xfb, 0xd9, 0x24, 0xfb, 0x12, 0xef, 0x07, 0x40,
  0xfa, 0x0f, 0xed, 0xf6, 0xfe, 0x05, 0xed, 0x00, 0xfe, 0x08, 0x03, 0xf7,
  0xf7, 0xe3, 0x1d, 0xfa, 0xee, 0x02, 0x08, 0x0d, 0xea, 0x07, 0xf8, 0xfe,
  0xda, 0x0b, 0x09, 0xff, 0xfd, 0xf9, 0x0a, 0xfa, 0xeb, 0x10, 0xf5, 0xf0,
  0xfa, 0xd1, 0xe0, 0xe9, 0xf2, 0xcf, 0x1e, 0xb9, 0x0c, 0xcb, 0x13, 0xcf,
  0xdf, 0x13, 0xf8, 0x04, 0xc8, 0xf4, 0xaa, 0xfe, 0xda, 0xdb, 0x1b, 0xf2,
  0x11, 0x20, 0xff, 0x11, 0xe0, 0x10, 0xee, 0xe7, 0xb3, 0xeb, 0xb3, 0xe3,
  0xf6, 0xee, 0x0f, 0x01, 0x19, 0x08, 0xed, 0x0e, 0x16, 0xd1, 0xfb, 0x04,
  0xde, 0x1e, 0xf3, 0x08, 0x22, 0x00, 0xdb, 0x0c, 0x04, 0x04, 0xf5, 0xfe,
  0x0a, 0xc6, 0xf9, 0x1c, 0x0c, 0xea, 0x03, 0xe4, 0x3b, 0xe9, 0xf3, 0xcb,
  0xf7, 0xf7, 0x18, 0x15, 0x8c, 0x81, 0x38, 0x08, 0xdc, 0x9f, 0xf5, 0xf4,
  0xcc, 0xdf, 0x16, 0xed, 0x29, 0xeb, 0xf6, 0x34, 0xfa, 0x09, 0x11, 0xcc,
  0xea, 0x22, 0x31, 0x06, 0xf0, 0x2e, 0xd4, 0x2e, 0xb1, 0x00, 0x0d, 0xca,
  0xda, 0x12, 0xf7, 0xca, 0x07, 0x13, 0xe7, 0x00, 0xed, 0x06, 0xa0, 0xf6,
  0xbb, 0xf1, 0xe8, 0xd1, 0xf6, 0x3e, 0x08, 0xfa, 0x03, 0x09, 0xe1, 0xb3,
  0x1e, 0x15, 0x0e, 0xdc, 0xd1, 0xf8, 0x0b, 0x0f, 0xbb, 0x1d, 0x02, 0x1e,
  0x27, 0x0e, 0x1a, 0xf2, 0xe8, 0x12, 0x02, 0x27, 0x33, 0xcc, 0xea, 0xc0,
  0x9b, 0x4e, 0xd3, 0xf7, 0x06, 0x0a, 0x2d, 0x01, 0xb2, 0x1d, 0x0b, 0x39,
  0x2d, 0x1d, 0xa4, 0x04, 0xd8, 0x43, 0xbb, 0xd2, 0x23, 0x05, 0xf1, 0xe8,
  0x0e, 0x29, 0xf4, 0xc4, 0x19, 0x0c, 0xa4, 0x11, 0x0a, 0x00, 0xd6, 0xe6,
  0xff, 0x27, 0x01, 0xd7, 0x08, 0x0a, 0xd7, 0x01, 0xe3, 0xd7, 0xb7, 0xf0,
  0x0d, 0xf5, 0xc8, 0x24, 0x02, 0xed, 0xf9, 0xf3, 0x01, 0x04, 0x16, 0xda,
  0x0a, 0xde, 0x19, 0x29, 0x1c, 0x90, 0x25, 0xed, 0xf4, 0xf7, 0xdd, 0x18,
  0x04, 0xd7, 0x15, 0xe3, 0xfa, 0xf4, 0x26, 0x03, 0xf5, 0xf3, 0xf8, 0xd6,
  0x14, 0x06, 0x10, 0xe3, 0xfd, 0x0e, 0xf7, 0x0a, 0xc2, 0xdf, 0xf7, 0xcd,
  0xe7, 0xfc, 0x08, 0x00, 0x0b, 0xf7, 0x10, 0x05, 0xeb, 0x0f, 0x03, 0x0f,
  0x02, 0xed, 0x15, 0x05, 0xf7, 0xf7, 0x12, 0xfc, 0x00, 0x0b, 0x02, 0x1a,
  0xaa, 0xc0, 0x08, 0x04, 0xfb, 0x05, 0x25, 0x02, 0x00, 0x1e, 0xfd, 0xf1,
  0xec, 0x08, 0x02, 0x94, 0x1c, 0x2c, 0xe6, 0x1d, 0xe0, 0x94, 0xf4, 0x81,
  0xfb, 0x01, 0x08, 0x0b, 0x0b, 0xf2, 0x11, 0xe4, 0x1e, 0x1e, 0xef, 0x07,
  0xec, 0xdb, 0xff, 0x10, 0xe1, 0xd6, 0x2a, 0x00, 0xf3, 0xc8, 0xf6, 0xe6,
  0x12, 0xf2, 0xfe, 0xf2, 0x02, 0xe8, 0x14, 0x20, 0xb3, 0x38, 0xd0, 0xf1,
  0xf9, 0x07, 0xfd, 0xd9, 0xcd, 0x1f, 0x26, 0x30, 0x14, 0x45, 0xd5, 0xc2,
  0xc7, 0x15, 0xe4, 0xda, 0xeb, 0xf8, 0xff, 0x14, 0xed, 0x0a, 0x04, 0x28,
  0x19, 0x3b, 0x11, 0xfb, 0xf5, 0x38, 0xdf, 0x02, 0xf3, 0xf4, 0xe7, 0xb7,
  0x1f, 0x06, 0xde, 0xd5, 0x26, 0x08, 0x81, 0x31, 0xae, 0x47, 0xec, 0xda,
  0xfc, 0xed, 0x2c, 0x02, 0x11, 0x2a, 0x0d, 0x59, 0x2b, 0x27, 0xa7, 0xf6,
  0xf2, 0x13, 0x0c, 0xee, 0x3b, 0x18, 0x03, 0xf7, 0xf3, 0x1c, 0x0c, 0x06,
  0x23, 0xfd, 0xfd, 0x25, 0xff, 0x22, 0xcd, 0x39, 0x29, 0xde, 0x0f, 0xdc,
  0xe8, 0xc1, 0x11, 0x96, 0xd8, 0x0c, 0x40, 0x34, 0xa0, 0xc1, 0xd3, 0xd7,
  0x09, 0x18, 0x5d, 0xf4, 0xe7, 0x39, 0xc9, 0x12, 0xc1, 0xeb, 0x88, 0xa3,
  0xc8, 0x17, 0x03, 0xe6, 0x09, 0x17, 0x4a, 0xf0, 0x38, 0xe3, 0xb9, 0x0f,
  0xb1, 0xda, 0x04, 0xfe, 0xde, 0xf2, 0xfc, 0xf2, 0x21, 0xd6, 0x0c, 0xf4,
  0x0a, 0xc2, 0xf3, 0xd3, 0xe0, 0xf3, 0xdb, 0xfc, 0x12, 0xd1, 0xb2, 0xfa,
  0xfe, 0xd9, 0xe7, 0xcb, 0x01, 0xdf, 0x09, 0xeb, 0xef, 0xc1, 0xea, 0x45,
  0x15, 0x04, 0xea, 0xb3, 0xed, 0x03, 0xdc, 0x12, 0x18, 0x05, 0xf2, 0xe8,
  0x0b, 0xda, 0x09, 0x07, 0xca, 0x43, 0xf2, 0xdc, 0x05, 0xe0, 0xe6, 0xfd,
  0xc3, 0xf7, 0xe6, 0xa0, 0x16, 0x2a, 0xe2, 0xef, 0x06, 0xf8, 0xbe, 0x04,
  0x2e, 0x02, 0x3b, 0x08, 0x02, 0x08, 0x05, 0xf1, 0x05, 0xb1, 0xf9, 0xea,
  0x00, 0x08, 0x15, 0xee, 0x18, 0x0e, 0x00, 0x14, 0x07, 0xcd, 0x00, 0xde,
  0xfa, 0xe7, 0x0f, 0xf2, 0xdc, 0x0e, 0x00, 0x20, 0x23, 0xf6, 0xf8, 0x01,
  0xf6, 0xff, 0xc0, 0x81, 0xf6, 0x0e, 0xf7, 0xfc, 0x06, 0x1c, 0x0c, 0x26,
  0x38, 0xc3, 0xf2, 0x1a, 0xde, 0xea, 0x1b, 0xd9, 0x23, 0xd8, 0x16, 0x06,
  0x03, 0xf4, 0x04, 0xfb, 0x03, 0xf7, 0xcb, 0x22, 0xda, 0xf5, 0x2e, 0xd4,
  0x11, 0x19, 0x0b, 0x15, 0x10, 0x03, 0x18, 0x13, 0x0d, 0x0e, 0xdf, 0x16,
  0x05, 0x1c, 0x15, 0x9a, 0x10, 0x02, 0xd5, 0x18, 0xfe, 0xea, 0x12, 0x0b,
  0xe2, 0x00, 0xfa, 0x00, 0xf3, 0xf8, 0xfa, 0x06, 0x0f, 0x16, 0x07, 0x0c,
  0x04, 0x0f, 0x19, 0xe9, 0x1d, 0x0e, 0xe9, 0x0b, 0x0b, 0x0c, 0xe6, 0xf6,
  0xfb, 0x07, 0xf0, 0xf9, 0xf8, 0x09, 0xff, 0xe3, 0x0c, 0x31, 0x19, 0xff,
  0x19, 0x2a, 0xb5, 0x31, 0xdf, 0x36, 0xcd, 0xce, 0xf5, 0xf4, 0x13, 0x0a,
  0xdf, 0x05, 0xf9, 0xfb, 0xbd, 0xe3, 0xee, 0x04, 0x0c, 0x10, 0x03, 0xf2,
  0xfd, 0xf2, 0x18, 0x2f, 0xf2, 0xff, 0xd6, 0x03, 0xcc, 0xfe, 0x1b, 0xd7,
  0x10, 0xf3, 0xe4, 0x32, 0xee, 0x0c, 0xef, 0xf7, 0xf1, 0x09, 0xfd, 0xef,
  0x04, 0xf4, 0x2b, 0x03, 0xfa, 0x15, 0xfb, 0xf3, 0xd1, 0xd4, 0x01, 0x0a,
  0x07, 0x81, 0x0b, 0xdf, 0x93, 0xec, 0x31, 0x08, 0x08, 0xd5, 0xd5, 0x22,
  0xce, 0xd6, 0x04, 0x21, 0xfa, 0xd4, 0x26, 0xf6, 0xe3, 0xd4, 0x21, 0xfc,
  0x22, 0xeb, 0x2c, 0x38, 0xde, 0x16, 0xf4, 0x23, 0xea, 0xe5, 0x29, 0xf8,
  0xe9, 0x01, 0x18, 0xe8, 0x08, 0x05, 0x2f, 0x25, 0x21, 0x08, 0xe8, 0xbb,
  0x40, 0x15, 0x2d, 0xe8, 0x13, 0xf4, 0xd6, 0xf5, 0xd4, 0xd9, 0x05, 0x81,
  0x15, 0x18, 0x08, 0x0e, 0x13, 0x19, 0x08, 0xee, 0x0d, 0x19, 0xee, 0x15,
  0xf8, 0x04, 0xf0, 0xe9, 0x0b, 0x17, 0xe0, 0xf7, 0x14, 0xf5, 0xef, 0xf0,
  0x04, 0x0b, 0xfb, 0xef, 0xf1, 0xf1, 0xea, 0xf9, 0x18, 0xfd, 0xfb, 0xfc,
  0x12, 0x08, 0xff, 0xe7, 0x02, 0x0e, 0x09, 0xea, 0x00, 0xee, 0x1f, 0x17,
  0x18, 0x04, 0xfc, 0xfb, 0x11, 0x11, 0xfc, 0xfe, 0x10, 0x0d, 0xf2, 0x07,
  0xf9, 0xfe, 0xf3, 0xee, 0x14, 0x0a, 0xfd, 0xf3, 0x11, 0x0a, 0xff, 0x0d,
  0x24, 0xf5, 0x01, 0xf2, 0xfe, 0xfc, 0x04, 0xf5, 0x05, 0x0a, 0xfd, 0xfa,
  0x03, 0x0b, 0xe5, 0xf6, 0x05, 0xf6, 0x00, 0xf2, 0x01, 0x0a, 0x00, 0xff,
  0xfa, 0x16, 0xf9, 0x0d, 0x16, 0x16, 0x03, 0xfc, 0x1b, 0x09, 0xfa, 0x1f,
  0xfe, 0xf8, 0x09, 0xe6, 0x0d, 0xfe, 0x03, 0x03, 0x05, 0x32, 0xed, 0x06,
  0x25, 0x0e, 0xfd, 0x06, 0xe6, 0xfd, 0x05, 0xb2, 0x66, 0x9d, 0x42, 0x54,
  0xfb, 0xfe, 0x81, 0xe6, 0x28, 0xcd, 0xde, 0xc1, 0xea, 0xa8, 0x19, 0x23,
  0x23, 0x01, 0x43, 0x36, 0x07, 0x25, 0xe8, 0xda, 0x14, 0x0d, 0xae, 0x18,
  0x85, 0xd3, 0xee, 0x98, 0xcf, 0x2e, 0xa9, 0xaa, 0xf1, 0x2f, 0xa9, 0xe9,
  0xdd, 0x4d, 0x93, 0x24, 0xeb, 0x39, 0x9e, 0x86, 0x01, 0xee, 0x3e, 0x3d,
  0xff, 0x26, 0xca, 0x18, 0x2c, 0x10, 0xfa, 0xfa, 0xe1, 0x1e, 0x0a, 0xeb,
  0x12, 0x19, 0xe5, 0x1f, 0x31, 0x46, 0xf1, 0xee, 0x24, 0xf1, 0x13, 0xff,
  0x1c, 0x06, 0xfe, 0xd3, 0xb8, 0x41, 0xdc, 0xd7, 0x31, 0xd6, 0x24, 0xe3,
  0xfb, 0xe8, 0xed, 0x13, 0x2d, 0x1f, 0x03, 0x0e, 0x14, 0x25, 0xfc, 0xf7,
  0xdb, 0x28, 0xe9, 0x07, 0x0c, 0xf8, 0x23, 0x0e, 0x38, 0x05, 0xe0, 0x0e,
  0x05, 0x06, 0x0a, 0x34, 0xd3, 0x14, 0xd6, 0xf1, 0x27, 0xda, 0x1f, 0xe1,
  0x15, 0x13, 0x0c, 0x1e, 0x20, 0xf6, 0x0c, 0x08, 0xcf, 0xf1, 0xca, 0xea,
  0x13, 0xc6, 0x34, 0xe6, 0x26, 0xdc, 0xfb, 0x1a, 0x02, 0x07, 0x2b, 0x09,
  0x81, 0x2f, 0xe8, 0xf5, 0x21, 0x28, 0xdb, 0x21, 0x03, 0x24, 0xf0, 0xf5,
  0x00, 0xe4, 0x0d, 0x0d, 0xdd, 0x07, 0x02, 0x08, 0x11, 0xff, 0xfc, 0xef,
  0xf8, 0xfe, 0x08, 0x10, 0x01, 0xf2, 0x17, 0xf5, 0xda, 0x02, 0x15, 0x12,
  0xed, 0xf6, 0x1b, 0x10, 0xfa, 0xeb, 0x12, 0x17, 0x2c, 0xfa, 0x1d, 0x19,
  0xdf, 0x14, 0xe7, 0xe7, 0x0f, 0xeb, 0xe9, 0x01, 0xf5, 0xe9, 0x21, 0xf7,
  0xf5, 0x0a, 0xff, 0x09, 0xe1, 0xf8, 0xf9, 0xf3, 0xd8, 0x00, 0xf8, 0xf0,
  0xf7, 0xf3, 0x10, 0xde, 0xc7, 0x0f, 0xfe, 0xee, 0xfe, 0xf6, 0x0c, 0x0d,
  0xf0, 0x0f, 0x10, 0xfc, 0x25, 0x00, 0xc1, 0xf7, 0x09, 0xd9, 0xf5, 0x25,
  0xda, 0xe9, 0xea, 0xed, 0x0c, 0xaf, 0x17, 0xeb, 0x21, 0xd5, 0x0f, 0x28,
  0x04, 0xfe, 0xf6, 0x0d, 0xe5, 0xf0, 0xde, 0xe3, 0x09, 0xc6, 0x3d, 0xef,
  0x1c, 0xf3, 0xfa, 0x1a, 0xfd, 0x20, 0xf0, 0xf0, 0xc2, 0xe4, 0xe6, 0xe2,
  0xe4, 0xf3, 0x38, 0xef, 0x0b, 0x0c, 0x09, 0x24, 0x21, 0xf9, 0x33, 0x19,
  0xcd, 0x12, 0xde, 0xe9, 0x12, 0x1a, 0xe9, 0x21, 0x07, 0x0d, 0x1c, 0x10,
  0x0a, 0x15, 0x16, 0xf7, 0x1c, 0x05, 0x1d, 0xee, 0x0b, 0x1d, 0xfd, 0x0a,
  0x04, 0x14, 0x1e, 0x01, 0x03, 0x07, 0x00, 0xf4, 0x15, 0xdf, 0xf6, 0xee,
  0xdd, 0xef, 0x20, 0xdd, 0x14, 0x19, 0x03, 0x1a, 0x17, 0x05, 0x20, 0xf4,
  0xe5, 0x2a, 0x00, 0x04, 0x21, 0x2e, 0xdd, 0x31, 0xfa, 0xfe, 0x13, 0xec,
  0x1b, 0x07, 0x2f, 0xf2, 0x0c, 0x10, 0x15, 0xf3, 0xfc, 0x18, 0x06, 0x12,
  0x09, 0xfa, 0x1f, 0x04, 0xd3, 0x27, 0x0c, 0xf3, 0x09, 0xe9, 0xf6, 0xdf,
  0xa6, 0xe6, 0xe1, 0xe2, 0x17, 0xf3, 0x0e, 0x14, 0x02, 0xff, 0x09, 0xfd,
  0xeb, 0x2d, 0xf7, 0xca, 0xfc, 0x21, 0x8c, 0x4c, 0xcf, 0xf3, 0xbc, 0xbb,
  0xf6, 0xd3, 0xf2, 0xf0, 0x01, 0x16, 0x43, 0xbd, 0x40, 0x23, 0xca, 0x21,
  0xb2, 0xe7, 0xf5, 0x02, 0xd5, 0xdd, 0x09, 0xe0, 0xdf, 0xb3, 0xfc, 0x98,
  0x88, 0x15, 0x81, 0xc3, 0xab, 0xc7, 0xb8, 0x32, 0x00, 0xee, 0xc6, 0xd7,
  0xee, 0xfb, 0xe8, 0x07, 0x0f, 0xb6, 0x30, 0xd0, 0x0a, 0x31, 0x03, 0x20,
  0x0f, 0xa8, 0xde, 0x14, 0xc2, 0xea, 0xf9, 0xdb, 0x00, 0x96, 0x37, 0xf1,
  0x13, 0xf9, 0xf2, 0x28, 0x1a, 0xc2, 0x02, 0x07, 0x81, 0xf5, 0xae, 0xbb,
  0x16, 0xc4, 0x09, 0xea, 0x1c, 0xd4, 0x1e, 0x29, 0xeb, 0x0d, 0xe7, 0xfe,
  0xf4, 0x01, 0xd4, 0x1a, 0xf8, 0xed, 0x15, 0xef, 0xf9, 0x1c, 0x0c, 0x12,
  0xee, 0x08, 0xf8, 0x0a, 0xf6, 0x03, 0xef, 0x00, 0x0f, 0x08, 0x12, 0x09,
  0xf9, 0xfb, 0x18, 0xfc, 0x01, 0xd9, 0xdf, 0xda, 0xc0, 0x36, 0xbc, 0xee,
  0x18, 0xf1, 0x0f, 0x06, 0x0a, 0x01, 0x0f, 0xfa, 0xfb, 0x3f, 0x06, 0xe1,
  0x20, 0x06, 0xe9, 0x1d, 0x0a, 0x39, 0x0b, 0x16, 0x0f, 0x2e, 0x1a, 0xd4,
  0x02, 0x0f, 0xf0, 0xfe, 0x12, 0x05, 0xeb, 0x06, 0x10, 0x06, 0xf2, 0x10,
  0x03, 0x08, 0x1f, 0xf4, 0x12, 0xf0, 0xe9, 0xe4, 0xd3, 0x23, 0xfd, 0xef,
  0x12, 0x10, 0xe7, 0x1a, 0xfc, 0x22, 0xeb, 0xd2, 0xf3, 0x16, 0x23, 0x39,
  0xbe, 0x0e, 0x16, 0x08, 0xf6, 0xf6, 0x09, 0x12, 0x03, 0x06, 0xf1, 0xff,
  0xf0, 0x17, 0x04, 0x01, 0xe9, 0xf7, 0x06, 0xfc, 0xed, 0x14, 0x1f, 0x0c,
  0x12, 0x02, 0x0f, 0x0f, 0x12, 0xd2, 0x19, 0x00, 0xf0, 0x1b, 0x12, 0xef,
  0x1b, 0x24, 0xf3, 0x25, 0xee, 0xda, 0x28, 0xfa, 0xcf, 0xfa, 0xed, 0xf2,
  0xef, 0x0c, 0x07, 0xfe, 0xf4, 0x11, 0xf6, 0x11, 0x03, 0x12, 0xe0, 0xfa,
  0xeb, 0x22, 0x07, 0xf7, 0xd9, 0x10, 0x09, 0xe8, 0xda, 0x02, 0x17, 0x10,
  0xfe, 0xee, 0x12, 0xf3, 0x14, 0xfd, 0x1b, 0x22, 0xe5, 0xf4, 0x37, 0xe3,
  0x10, 0x06, 0xa7, 0x08, 0xf6, 0xe5, 0x00, 0x09, 0x0f, 0x95, 0xfd, 0xf4,
  0x21, 0x10, 0x7f, 0xed, 0x05, 0xbd, 0xde, 0xf5, 0xa2, 0xbc, 0xf5, 0xe3,
  0xe4, 0xaf, 0x24, 0x13, 0x03, 0xe3, 0x46, 0xf0, 0x2f, 0x01, 0xee, 0xfa,
  0xc4, 0xdf, 0xe7, 0xff, 0x1d, 0xe1, 0x02, 0x29, 0x09, 0x20, 0x31, 0xf4,
  0x0b, 0x0d, 0xf7, 0xb8, 0xe1, 0xde, 0x11, 0x30, 0x2d, 0x1a, 0x81, 0x12,
  0x34, 0xfb, 0xf4, 0xb3, 0x07, 0x19, 0xf3, 0xc9, 0xda, 0xc0, 0xdf, 0xcd,
  0xff, 0x0c, 0xbc, 0x1e, 0x17, 0x2c, 0xf8, 0xcf, 0xe8, 0xe8, 0xf2, 0xea,
  0xfd, 0xfe, 0x8f, 0xe0, 0xfe, 0x10, 0xe9, 0x14, 0x25, 0x18, 0x21, 0xc4,
  0x27, 0x29, 0xdb, 0x38, 0x0a, 0x09, 0xab, 0x04, 0x16, 0x09, 0x07, 0x0c,
  0x18, 0xea, 0x0f, 0x00, 0x02, 0xe5, 0xfe, 0xe2, 0xf1, 0x00, 0xfd, 0xfc,
  0x0c, 0x05, 0xe6, 0xda, 0x07, 0x09, 0x0a, 0x03, 0xfd, 0x02, 0x0c, 0x0c,
  0x04, 0x14, 0xfe, 0xec, 0x13, 0xec, 0xf4, 0xb9, 0x12, 0x18, 0x1a, 0x06,
  0x15, 0x0b, 0xe4, 0x12, 0xf3, 0x05, 0x15, 0x04, 0xe9, 0xd7, 0xf8, 0x03,
  0xef, 0x01, 0x20, 0x12, 0xfa, 0x11, 0x14, 0x08, 0x1e, 0x08, 0xf1, 0x12,
  0xf1, 0xda, 0xf3, 0xbf, 0xd7, 0x10, 0x15, 0x0e, 0xfd, 0xea, 0xdc, 0xf5,
  0xe6, 0x18, 0x01, 0xfd, 0xf9, 0xc5, 0x1e, 0xea, 0xde, 0x0f, 0xfb, 0x08,
  0xef, 0x05, 0xe9, 0x14, 0xe4, 0x07, 0x04, 0x00, 0x1c, 0x02, 0x2b, 0x1d,
  0x29, 0x14, 0x05, 0x8e, 0x0a, 0xfc, 0xf2, 0xcf, 0xbd, 0x95, 0xff, 0xba,
  0x13, 0x04, 0x13, 0x5b, 0x03, 0x43, 0x19, 0x93, 0x08, 0x10, 0xc2, 0xfd,
  0xa6, 0xc0, 0xb2, 0xbd, 0x11, 0x0a, 0xc7, 0x03, 0x16, 0x21, 0x15, 0xb6,
  0x1b, 0xf2, 0xf6, 0xe7, 0xd1, 0xc3, 0xce, 0xd5, 0xf5, 0x33, 0xe1, 0x23,
  0x11, 0xd5, 0xdb, 0xd2, 0xa2, 0xb8, 0x63, 0xd6, 0x13, 0x07, 0xeb, 0x11,
  0xf8, 0x1b, 0xcf, 0x0c, 0xe6, 0xe1, 0xeb, 0xd5, 0xe1, 0xf8, 0x33, 0x00,
  0x3b, 0xf1, 0x14, 0x06, 0x2b, 0xdf, 0x0e, 0xa8, 0xe6, 0x16, 0xf2, 0x07,
  0x39, 0x37, 0x01, 0x27, 0x24, 0x1e, 0x32, 0x31, 0xb3, 0xd7, 0xc9, 0x03,
  0x08, 0x84, 0x0f, 0xf9, 0xa6, 0xdc, 0x3c, 0xfd, 0x12, 0x21, 0xd3, 0x23,
  0x81, 0x14, 0xc2, 0xca, 0xfd, 0xff, 0x4f, 0x1e, 0xb6, 0x10, 0x03, 0x2f,
  0x15, 0x05, 0x09, 0x09, 0xfa, 0x22, 0x00, 0xc9, 0x04, 0x42, 0x1e, 0x13,
  0x27, 0x51, 0xd9, 0x1e, 0xe8, 0xfe, 0x10, 0xe9, 0xc3, 0x79, 0x06, 0xfc,
  0xfd, 0xf7, 0xce, 0x1c, 0xd3, 0xf5, 0x20, 0x05, 0x0a, 0x24, 0xf9, 0xdc,
  0xaf, 0x49, 0xa8, 0xcd, 0x0a, 0xee, 0xdf, 0x11, 0xa8, 0x2e, 0x52, 0xed,
  0x44, 0x32, 0xb9, 0x0c, 0xf6, 0xff, 0xa2, 0xf0, 0x47, 0xe0, 0xdf, 0xea,
  0x26, 0xe7, 0x25, 0x81, 0x3b, 0x0e, 0xcd, 0x49, 0x03, 0xeb, 0x0f, 0xf2,
  0xe7, 0xe7, 0x1a, 0x25, 0xe1, 0xdc, 0xf9, 0xf2, 0x15, 0xe7, 0x30, 0x0b,
  0xbf, 0xfb, 0x0d, 0xdf, 0xd5, 0xe6, 0x07, 0x18, 0xaa, 0xe5, 0x12, 0x07,
  0x01, 0x1f, 0xe7, 0x19, 0xed, 0xfc, 0xed, 0x39, 0x01, 0x28, 0x14, 0xf5,
  0x01, 0x54, 0x9c, 0xdf, 0xbe, 0x1e, 0x83, 0x09, 0x65, 0x93, 0x4c, 0x48,
  0x2d, 0x33, 0x3a, 0xc4, 0x35, 0x0b, 0xd6, 0xdb, 0xa7, 0xa7, 0x09, 0xdc,
  0x4c, 0xb3, 0x11, 0x1f, 0x32, 0xc9, 0x0f, 0xf7, 0x07, 0xa1, 0x25, 0xb5,
  0xff, 0xd3, 0x07, 0x2e, 0xcb, 0xce, 0x06, 0x09, 0x40, 0x84, 0x44, 0xf3,
  0x8d, 0xb0, 0x2e, 0xde, 0x25, 0xe1, 0xd4, 0x0b, 0xc4, 0x10, 0x06, 0x2a,
  0xe0, 0x12, 0x28, 0x11, 0xc5, 0xd0, 0x1c, 0x10, 0x0d, 0x10, 0xe8, 0xfc,
  0xf9, 0xdd, 0x24, 0x43, 0xc4, 0xe5, 0x15, 0x15, 0xf2, 0xf3, 0x25, 0xfa,
  0x0b, 0x09, 0x3b, 0xe6, 0xe1, 0xe8, 0x3f, 0x2d, 0xaa, 0x41, 0x56, 0xf2,
  0x5f, 0x23, 0x02, 0x3a, 0x1f, 0x05, 0xe7, 0xc9, 0xc8, 0x00, 0xef, 0x0f,
  0xb4, 0xd9, 0x0d, 0xfb, 0xb9, 0xd1, 0x05, 0x06, 0xc2, 0x03, 0xe2, 0xe4,
  0xa5, 0x16, 0xe2, 0xcf, 0x90, 0xd2, 0x20, 0xf7, 0xe5, 0x14, 0x06, 0x14,
  0xfd, 0x16, 0xee, 0x01, 0x43, 0x21, 0xc1, 0x0c, 0xc9, 0x7f, 0x41, 0xdd,
  0x3d, 0x38, 0xa1, 0x55, 0xd2, 0x1b, 0xf7, 0xab, 0xd7, 0x08, 0xbe, 0xb3,
  0x91, 0x04, 0x9c, 0xe8, 0x16, 0x03, 0xfa, 0x17, 0x5f, 0x15, 0xe2, 0x4b,
  0x95, 0x34, 0xa6, 0xda, 0xad, 0xe6, 0x01, 0x24, 0xeb, 0xe3, 0x20, 0x3e,
  0x52, 0x4b, 0xd0, 0x0f, 0xea, 0x3b, 0xd5, 0x04, 0xcb, 0x3f, 0xf7, 0x0f,
  0x32, 0x08, 0xfa, 0x19, 0xe3, 0x24, 0xcd, 0xce, 0xb2, 0xf4, 0xff, 0xff,
  0x04, 0x00, 0x00, 0x00, 0x40, 0x00, 0x00, 0x00, 0x7a, 0x3a, 0x00, 0x00,
  0x57, 0x0e, 0x00, 0x00, 0xa9, 0x10, 0x00, 0x00, 0x6c, 0xe6, 0xff, 0xff,
  0x7d, 0x0c, 0x00, 0x00, 0x0f, 0xff, 0xff, 0xff, 0xfb, 0xec, 0xff, 0xff,
  0x26, 0x0e, 0x00, 0x00, 0x24, 0x1f, 0x00, 0x00, 0xc6, 0xf4, 0xff, 0xff,
  0xbc, 0x2f, 0x00, 0x00, 0x11, 0xdb, 0xff, 0xff, 0xbc, 0x0b, 0x00, 0x00,
  0x51, 0xf7, 0xff, 0xff, 0x60, 0xea, 0xff, 0xff, 0xb1, 0x34, 0x00, 0x00,
  0xfe, 0xf4, 0xff, 0xff, 0x04, 0x00, 0x00, 0x00, 0x00, 0x09, 0x00, 0x00,
  0x0f, 0xfd, 0xf4, 0x06, 0xf4, 0xf5, 0x29, 0xe1, 0x3a, 0xde, 0xf5, 0xc1,
  0x08, 0xf6, 0x01, 0x4f, 0x32, 0x24, 0x10, 0xdd, 0x1c, 0x04, 0x1f, 0xe3,
  0xf5, 0xfe, 0x05, 0xeb, 0x00, 0xf3, 0x03, 0x7d, 0xfe, 0x33, 0x34, 0xc4,
  0xf9, 0x0a, 0x05, 0xf4, 0x11, 0xe2, 0xea, 0xc0, 0x28, 0x00, 0x4f, 0x42,
  0xd5, 0xd4, 0x3b, 0xd4, 0xf6, 0xf2, 0xeb, 0xd0, 0x28, 0xda, 0xe6, 0x17,
  0xf5, 0x19, 0x0e, 0x15, 0xf1, 0xf7, 0x2c, 0x92, 0xe5, 0xd9, 0xd8, 0xcb,
  0x31, 0x0a, 0xea, 0x0c, 0x2b, 0x20, 0x3f, 0xe9, 0x22, 0x09, 0xe2, 0xf1,
  0x83, 0xd0, 0xc8, 0x14, 0x4a, 0xf7, 0xc6, 0xfc, 0x09, 0x32, 0x22, 0xbc,
  0x41, 0x39, 0x0f, 0xed, 0xcb, 0xf1, 0x3e, 0x1e, 0x3a, 0x12, 0x9d, 0xbd,
  0xda, 0x22, 0x15, 0x04, 0x39, 0xf5, 0xaa, 0xdc, 0xf5, 0xda, 0x3c, 0x29,
  0x27, 0x2e, 0xa5, 0x81, 0xd7, 0x4c, 0x2e, 0xb8, 0x52, 0xf7, 0xd5, 0xcc,
  0xfe, 0xad, 0x3e, 0x0b, 0x16, 0x55, 0xb1, 0xae, 0xfc, 0x3a, 0x06, 0x1f,
  0xca, 0xee, 0x25, 0xfa, 0xfc, 0xee, 0xfd, 0x09, 0x21, 0x16, 0x14, 0xe3,
  0x27, 0xf8, 0x1a, 0xf5, 0xe5, 0xe2, 0x3f, 0x1c, 0xb6, 0xf7, 0xd8, 0xbe,
  0x21, 0xc9, 0xe8, 0x41, 0xd9, 0x05, 0xf4, 0x13, 0x0d, 0xcc, 0x0d, 0x10,
  0xb6, 0x4c, 0xe4, 0xeb, 0x32, 0xd8, 0x0d, 0xcd, 0x2e, 0x7f, 0x27, 0x07,
  0xee, 0xd6, 0x1f, 0x04, 0xd6, 0x2c, 0x23, 0x10, 0xe0, 0xdc, 0xfc, 0x21,
  0x1a, 0x43, 0x01, 0xe5, 0x0b, 0xeb, 0xfa, 0x1b, 0xed, 0x3a, 0x23, 0x10,
  0xf1, 0x07, 0xdd, 0x40, 0x02, 0xdf, 0x23, 0xf8, 0x15, 0xdf, 0xec, 0x26,
  0xf2, 0x27, 0xfa, 0xd8, 0x14, 0x1f, 0xb2, 0xcb, 0xec, 0xef, 0x35, 0x01,
  0x22, 0xf7, 0xff, 0x3f, 0xb2, 0xe4, 0xec, 0x32, 0xc6, 0x18, 0xfe, 0xd8,
  0xf0, 0x5f, 0x13, 0x45, 0x07, 0x04, 0xf1, 0x34, 0x00, 0xfe, 0x1a, 0xf7,
  0xcb, 0x42, 0xc7, 0xc4, 0xef, 0x38, 0x21, 0x1b, 0xfd, 0xa4, 0x09, 0xf9,
  0xee, 0xaf, 0xe4, 0x10, 0x0a, 0x4e, 0x06, 0xbb, 0x10, 0x61, 0x02, 0x0a,
  0xbb, 0xc3, 0x1d, 0xfe, 0x19, 0x14, 0x64, 0xf2, 0x38, 0x16, 0x1b, 0x15,
  0x04, 0xe5, 0xc9, 0xea, 0xea, 0xd9, 0x08, 0x07, 0x22, 0x11, 0x0d, 0x03,
  0xf7, 0xd7, 0x03, 0x2a, 0xf8, 0xfc, 0xc4, 0x07, 0xf8, 0xde, 0xee, 0x17,
  0x3b, 0xf3, 0xcd, 0xad, 0x14, 0xd1, 0xfd, 0x2d, 0xae, 0x19, 0x07, 0x06,
  0x0a, 0xee, 0x13, 0x38, 0xf4, 0x22, 0x3f, 0xc7, 0x55, 0xe1, 0xda, 0x0a,
  0x2d, 0xef, 0x08, 0xf6, 0x11, 0xfe, 0x11, 0xe2, 0x0c, 0x2e, 0x31, 0xe5,
  0x3f, 0xeb, 0xdd, 0xfb, 0xe6, 0xe4, 0xea, 0x13, 0x04, 0x00, 0xe2, 0x30,
  0x0d, 0xf0, 0x0d, 0xd4, 0xe5, 0xe5, 0x0f, 0x0a, 0xc3, 0x13, 0x01, 0xb6,
  0x0b, 0x19, 0xff, 0x1b, 0xf9, 0xe8, 0xe0, 0xeb, 0x3d, 0x05, 0x0b, 0xf8,
  0xf3, 0xf2, 0xce, 0xff, 0xfe, 0xce, 0xf6, 0x36, 0x0b, 0x19, 0xf8, 0xff,
  0x34, 0xee, 0x13, 0x09, 0xfd, 0xeb, 0xfc, 0xe7, 0x33, 0x48, 0x02, 0x33,
  0xef, 0xe9, 0x02, 0x12, 0xfe, 0x81, 0xe2, 0x1f, 0xd8, 0xe5, 0xd4, 0x00,
  0x3d, 0x7c, 0xfa, 0xf2, 0xc4, 0xde, 0x19, 0x14, 0xff, 0xe6, 0x57, 0xd4,
  0x02, 0x07, 0x2d, 0xde, 0xd6, 0x20, 0xe2, 0xf3, 0xc0, 0xf9, 0x2a, 0x66,
  0xf0, 0x05, 0x48, 0xf8, 0xce, 0xec, 0x57, 0x2a, 0x1d, 0x24, 0xfa, 0xc1,
  0xd2, 0xda, 0x04, 0x52, 0xc6, 0xda, 0x35, 0xea, 0xe6, 0xea, 0x3c, 0x50,
  0xf6, 0x56, 0x02, 0xcb, 0xf2, 0xfe, 0xc2, 0x2f, 0xc5, 0xb4, 0x24, 0xf0,
  0xc2, 0xe2, 0x21, 0x5d, 0xf8, 0x16, 0xd2, 0x98, 0xf2, 0xa5, 0xdb, 0x42,
  0xc3, 0xb8, 0x0c, 0x35, 0xd7, 0x0f, 0x3c, 0x1a, 0xfa, 0x0b, 0xc9, 0x9d,
  0x13, 0xfc, 0xfa, 0xdf, 0x12, 0xd9, 0x35, 0x15, 0x2d, 0xfd, 0x36, 0xe3,
  0x27, 0x21, 0x9d, 0xb8, 0xcd, 0x81, 0xbe, 0xd5, 0x10, 0x11, 0x05, 0x38,
  0xb8, 0xda, 0x2b, 0xf1, 0x13, 0x44, 0xeb, 0xb2, 0xd5, 0xfe, 0x02, 0xee,
  0x17, 0xc5, 0x0a, 0x19, 0x2e, 0xd7, 0x18, 0x9a, 0xed, 0x20, 0xe6, 0xe3,
  0xcb, 0xad, 0x34, 0xb0, 0x2d, 0x48, 0x12, 0x17, 0x51, 0xce, 0x1a, 0xfb,
  0xed, 0xf7, 0x05, 0x34, 0xf3, 0x23, 0x10, 0xb8, 0x46, 0xd6, 0xef, 0x9d,
  0x19, 0x34, 0xe4, 0xbd, 0x09, 0x06, 0x04, 0x31, 0x21, 0x1d, 0x1c, 0xde,
  0x26, 0x18, 0x21, 0xf7, 0xf8, 0xdf, 0xe3, 0xdd, 0xeb, 0x01, 0x19, 0x1e,
  0x1d, 0x2b, 0x28, 0x0c, 0xf4, 0x7b, 0x1a, 0xcc, 0xe5, 0xd4, 0xd7, 0x23,
  0xdf, 0xd0, 0x0a, 0x53, 0x01, 0x3b, 0xdf, 0x08, 0x1d, 0xce, 0xd2, 0x83,
  0xdf, 0x1a, 0xc5, 0xfa, 0xbb, 0xd7, 0x48, 0x06, 0x0e, 0x21, 0xf4, 0x16,
  0xf1, 0xf4, 0x07, 0xf7, 0xec, 0xc2, 0xdd, 0x2d, 0x01, 0xf8, 0xf3, 0x25,
  0xe3, 0x18, 0x06, 0xfe, 0xdc, 0x51, 0x10, 0x3d, 0x07, 0xf6, 0xbc, 0x0a,
  0x17, 0x96, 0x27, 0x44, 0xe5, 0x0f, 0xef, 0x33, 0xb8, 0x20, 0x1e, 0x9e,
  0xf8, 0xc4, 0x00, 0x2d, 0x38, 0xb0, 0x03, 0xf8, 0x37, 0x16, 0xf8, 0x3b,
  0xc6, 0x3f, 0x02, 0x0d, 0xff, 0xec, 0x2e, 0x16, 0x6b, 0xdc, 0x81, 0x2f,
  0x0c, 0xf4, 0xf2, 0x0c, 0xb9, 0x33, 0x0a, 0x14, 0x02, 0x13, 0xdf, 0xb9,
  0xa3, 0x00, 0x38, 0xde, 0x1b, 0x15, 0x29, 0x47, 0x28, 0xdc, 0x25, 0x21,
  0x0a, 0x66, 0x0c, 0xc0, 0xcf, 0x0e, 0x2c, 0xd4, 0xda, 0xe3, 0xfa, 0x0e,
  0xfa, 0xaa, 0x34, 0x46, 0x02, 0x36, 0x21, 0xee, 0xdc, 0x26, 0x0c, 0x12,
  0x10, 0x1b, 0xf0, 0xd9, 0xd0, 0xa4, 0x31, 0x50, 0xd2, 0x29, 0x05, 0xf0,
  0xb9, 0x30, 0x4d, 0xda, 0x1f, 0x06, 0x44, 0xca, 0x17, 0xe9, 0xdd, 0x40,
  0x0e, 0x49, 0xe6, 0x00, 0xbb, 0xee, 0xff, 0x05, 0xe5, 0x2f, 0x1b, 0xdb,
  0x2c, 0xd2, 0xcf, 0x0e, 0xe6, 0x21, 0xc4, 0x13, 0x05, 0xe0, 0xcd, 0xd4,
  0x53, 0x38, 0xe0, 0xb9, 0xbe, 0xd2, 0xe3, 0xdf, 0xb1, 0x7f, 0xd0, 0xff,
  0xc1, 0xf2, 0x21, 0xfb, 0xe3, 0xef, 0xee, 0x12, 0x1a, 0xda, 0x53, 0x32,
  0xd7, 0xfa, 0xb6, 0x06, 0xde, 0x17, 0xc4, 0xe4, 0xf7, 0x38, 0x0f, 0x13,
  0x28, 0xd1, 0x0b, 0xae, 0x02, 0x32, 0xb1, 0x04, 0xe2, 0xf8, 0x03, 0x06,
  0x27, 0xfd, 0xdb, 0xfe, 0xeb, 0xb6, 0xf5, 0x10, 0xc1, 0x32, 0xd1, 0xd6,
  0xf6, 0x16, 0x05, 0xe9, 0x2c, 0x15, 0x33, 0xed, 0xc8, 0x0f, 0xe7, 0x11,
  0x18, 0x28, 0xf5, 0xde, 0xc2, 0x14, 0xc4, 0x12, 0x42, 0x2c, 0x08, 0x1f,
  0xda, 0x1d, 0x1e, 0x25, 0x26, 0x18, 0xeb, 0xfa, 0x81, 0x27, 0x17, 0xdf,
  0x5b, 0x0e, 0xe8, 0xfb, 0xb6, 0x37, 0x24, 0x32, 0xc4, 0xfa, 0xd0, 0x03,
  0x28, 0x01, 0x04, 0xf3, 0x46, 0x1b, 0x01, 0xf5, 0xd8, 0x1e, 0xc5, 0xb5,
  0x08, 0xd7, 0x00, 0xee, 0x2e, 0xf2, 0x05, 0x14, 0x05, 0xf2, 0x17, 0x09,
  0xfa, 0x40, 0xec, 0xf9, 0xed, 0x08, 0xce, 0xf7, 0xbd, 0xe4, 0x24, 0xfb,
  0x2d, 0x05, 0xcc, 0xf1, 0xd6, 0xfd, 0x23, 0x0f, 0x04, 0xdf, 0xe2, 0x0d,
  0x21, 0xda, 0xf3, 0x0c, 0x5a, 0x0c, 0x04, 0xf9, 0xe1, 0x23, 0x11, 0xeb,
  0xeb, 0x09, 0x03, 0xf3, 0x07, 0xe2, 0x23, 0x2e, 0x1c, 0xdc, 0x14, 0xeb,
  0xdd, 0x31, 0x47, 0x0b, 0x1f, 0xc5, 0xf4, 0xeb, 0x01, 0x01, 0x23, 0x20,
  0x1b, 0x00, 0xd6, 0xee, 0xe6, 0x27, 0x64, 0x1f, 0x0f, 0xe0, 0xf7, 0x00,
  0x0c, 0x15, 0xdf, 0x2f, 0xde, 0xfc, 0xeb, 0x28, 0x91, 0x1a, 0x27, 0x11,
  0xce, 0xfd, 0xd5, 0xdc, 0x07, 0x02, 0xa5, 0x34, 0xef, 0x00, 0xfc, 0xf6,
  0xa7, 0x3f, 0x39, 0x20, 0xf1, 0xf1, 0xe7, 0xda, 0x2e, 0x0c, 0xd1, 0xc6,
  0x2c, 0x22, 0x0e, 0x18, 0xc5, 0x40, 0x0a, 0xdf, 0xe0, 0xf4, 0xbb, 0x2c,
  0xc2, 0xf4, 0xf5, 0x06, 0x2a, 0x2e, 0xd5, 0xf0, 0xc8, 0xf6, 0xe3, 0x42,
  0x43, 0xb8, 0xf4, 0xe1, 0x34, 0xe8, 0xd2, 0xd9, 0x3b, 0x06, 0xfa, 0xe0,
  0xda, 0xe3, 0xf8, 0xf2, 0xef, 0xd3, 0x0b, 0x02, 0x0d, 0x02, 0xd8, 0xc3,
  0x21, 0x0b, 0xc6, 0xfc, 0xbe, 0x36, 0x0b, 0x99, 0xe6, 0xe2, 0xf6, 0x1d,
  0x27, 0x34, 0x8a, 0xde, 0xf8, 0x1a, 0x15, 0xe8, 0x21, 0xf9, 0x3e, 0x0d,
  0x18, 0xb9, 0xdf, 0x00, 0x2e, 0x22, 0xb9, 0x00, 0x29, 0x0b, 0x0c, 0xb8,
  0x14, 0x19, 0x43, 0x29, 0xfe, 0xb9, 0xfc, 0xf7, 0x12, 0x35, 0xb6, 0x13,
  0xf7, 0x32, 0xfa, 0x0c, 0xff, 0x5a, 0x7f, 0xef, 0x20, 0xc4, 0xf7, 0xf6,
  0x0b, 0x39, 0xc4, 0x3d, 0x2c, 0xd1, 0xe6, 0x33, 0xe0, 0x88, 0x35, 0x4b,
  0x01, 0xae, 0xf1, 0xd5, 0x32, 0x2a, 0x37, 0x1e, 0x1a, 0x24, 0xfd, 0x2d,
  0xdc, 0xfb, 0x0e, 0x6e, 0x42, 0xb1, 0xcf, 0xcb, 0x2d, 0x7b, 0x16, 0x22,
  0xb2, 0x27, 0x3c, 0x2c, 0x09, 0xf0, 0xfa, 0x3e, 0x6b, 0x2e, 0xa3, 0x9f,
  0x15, 0x47, 0x12, 0x19, 0x0f, 0xe0, 0x1e, 0xeb, 0xe4, 0x1c, 0xdb, 0x42,
  0x25, 0xcc, 0xee, 0x18, 0x40, 0x39, 0x1a, 0xfc, 0xe5, 0x1e, 0xc8, 0x08,
  0xff, 0x0c, 0xd9, 0x25, 0x06, 0x29, 0xc2, 0xfa, 0x09, 0x1d, 0x09, 0x39,
  0x9e, 0x2a, 0x2c, 0x2a, 0x14, 0xbd, 0xed, 0xbc, 0x26, 0xfa, 0xb2, 0x14,
  0x39, 0x6d, 0x33, 0x48, 0xfe, 0xfd, 0x38, 0xfb, 0xd6, 0x7f, 0xeb, 0xe1,
  0xfa, 0x06, 0x00, 0x02, 0x37, 0x41, 0x02, 0x14, 0xc1, 0xff, 0x03, 0x0a,
  0xf9, 0x70, 0x02, 0xcc, 0x08, 0x3a, 0xe5, 0x20, 0xf8, 0xd1, 0xea, 0x38,
  0x06, 0xc9, 0x35, 0xef, 0x05, 0x39, 0xda, 0xe3, 0x2b, 0xcd, 0x00, 0x38,
  0x34, 0x50, 0x4e, 0x01, 0xe3, 0x04, 0x0e, 0x02, 0xff, 0xd5, 0xe6, 0x48,
  0x32, 0xd5, 0xea, 0xd9, 0xf9, 0x46, 0xe9, 0xc3, 0xb1, 0xfd, 0xee, 0xef,
  0xfb, 0xe6, 0xf3, 0x12, 0x3b, 0x1d, 0x10, 0xcd, 0xf0, 0xec, 0xf6, 0xe8,
  0xae, 0xf2, 0xf0, 0xf5, 0xee, 0x18, 0xf1, 0x0b, 0x22, 0x03, 0x1f, 0xeb,
  0x2e, 0xea, 0xc8, 0x08, 0x08, 0x1d, 0xa7, 0x36, 0x1f, 0xf2, 0x22, 0x00,
  0xd0, 0xd8, 0x27, 0x00, 0x24, 0x07, 0xef, 0xc6, 0x03, 0x0d, 0xd3, 0x19,
  0xe8, 0xea, 0x1d, 0xf2, 0x1d, 0xd8, 0x0c, 0x0c, 0x08, 0x42, 0xf3, 0x1c,
  0x0b, 0x09, 0xfb, 0x1a, 0xd0, 0x24, 0x09, 0xe9, 0x54, 0x13, 0x15, 0x0f,
  0xf6, 0x34, 0x54, 0xd8, 0x0b, 0xf6, 0x1b, 0x15, 0xfd, 0xe7, 0xf7, 0xef,
  0x17, 0xfc, 0x15, 0xd0, 0x20, 0x4c, 0x69, 0xe9, 0xca, 0x2a, 0x19, 0x2d,
  0xf1, 0xea, 0xe0, 0x34, 0x2a, 0xc9, 0x0c, 0xe0, 0x2d, 0x7f, 0x0d, 0x11,
  0xd6, 0x2a, 0x37, 0x44, 0x0f, 0xd4, 0xe3, 0x33, 0x3a, 0x2f, 0xf6, 0xd9,
  0xe9, 0x2d, 0x3d, 0xf5, 0x91, 0x98, 0xc8, 0x32, 0xf4, 0xfe, 0x32, 0xd8,
  0x52, 0x44, 0x1e, 0xe5, 0xef, 0xec, 0x3a, 0x01, 0xb4, 0x0b, 0xfa, 0x28,
  0x0e, 0xc1, 0xec, 0xfd, 0x38, 0xff, 0x18, 0x07, 0xed, 0xc6, 0x3f, 0x18,
  0x05, 0x2b, 0x20, 0x34, 0x06, 0xf7, 0xec, 0xf4, 0x19, 0x0f, 0xd7, 0xca,
  0x2a, 0x21, 0x10, 0xe8, 0xd8, 0xc8, 0xfa, 0x2e, 0xf0, 0xdf, 0xf7, 0x17,
  0x16, 0x04, 0x62, 0xfb, 0x2c, 0xc9, 0xd4, 0xd3, 0x04, 0x0c, 0xe8, 0x57,
  0x32, 0x07, 0x0c, 0x05, 0x0a, 0x0c, 0xfa, 0xf6, 0x19, 0xf0, 0xf3, 0x2a,
  0x20, 0xd2, 0xc5, 0x4f, 0x06, 0x1d, 0x48, 0xe3, 0x20, 0x4b, 0x3f, 0x05,
  0xd9, 0x17, 0x22, 0x1a, 0x1c, 0xbc, 0x33, 0xe3, 0xe3, 0x22, 0xc4, 0x28,
  0x08, 0x12, 0x7f, 0x26, 0xdb, 0xc6, 0xfc, 0xd3, 0x26, 0xd7, 0x18, 0x19,
  0xf9, 0x0e, 0xd5, 0x06, 0x0b, 0x37, 0x11, 0xdb, 0x02, 0x0e, 0x2b, 0x3c,
  0xdf, 0xcd, 0xf8, 0x09, 0xe8, 0xed, 0xc8, 0x23, 0x06, 0x62, 0x1e, 0xce,
  0x1b, 0xf2, 0xce, 0xe0, 0xfd, 0xe1, 0xd8, 0xdf, 0x03, 0x0a, 0x18, 0xce,
  0xde, 0xa5, 0x18, 0xe9, 0x5f, 0x65, 0xe4, 0xc3, 0xe8, 0x05, 0xf1, 0xd5,
  0x14, 0xf4, 0x23, 0xfa, 0xfb, 0xde, 0x1d, 0x17, 0x31, 0x78, 0x26, 0xbf,
  0xe1, 0x14, 0x4b, 0x06, 0xd4, 0x3e, 0x1d, 0xd7, 0xe0, 0xec, 0x4b, 0x2b,
  0x45, 0x54, 0xce, 0xc3, 0xe0, 0xb7, 0x0a, 0x20, 0x0a, 0x03, 0xca, 0x1d,
  0x3b, 0x20, 0x2b, 0xf5, 0x29, 0x55, 0x06, 0xc0, 0xee, 0xf4, 0xf1, 0xe7,
  0xe2, 0x2e, 0xf1, 0x11, 0xea, 0x32, 0x50, 0x09, 0x32, 0x6b, 0xf1, 0xa9,
  0x0a, 0x0b, 0x30, 0xd3, 0xea, 0x16, 0xd3, 0xe8, 0xf8, 0xf0, 0x04, 0xf4,
  0x3f, 0x57, 0xc2, 0xea, 0xe8, 0xcb, 0x02, 0xf4, 0x02, 0xd7, 0x00, 0xfd,
  0x5b, 0x00, 0x06, 0x1b, 0x2b, 0x11, 0x35, 0xe5, 0x30, 0xe9, 0xef, 0x15,
  0xf5, 0xe8, 0x1d, 0x14, 0x31, 0xe5, 0x0c, 0xdc, 0x0c, 0xc6, 0x43, 0x81,
  0x26, 0xd7, 0xed, 0xe9, 0x0e, 0x1c, 0xdb, 0xde, 0x2c, 0x07, 0x15, 0xcb,
  0xe2, 0x3a, 0x2d, 0xf8, 0x0d, 0x9b, 0xa9, 0x33, 0xf8, 0x2e, 0x41, 0xe3,
  0xb1, 0xfb, 0x18, 0x2b, 0xe3, 0xf7, 0x15, 0xf5, 0xe6, 0xa9, 0x1c, 0x3f,
  0xfd, 0x07, 0x1c, 0xcc, 0xa0, 0xde, 0x4a, 0x58, 0x35, 0xfa, 0x0d, 0xee,
  0xe0, 0xf2, 0x36, 0xf2, 0xbe, 0x24, 0x07, 0xdb, 0x2e, 0xe2, 0x1c, 0x19,
  0xdd, 0xf9, 0xf4, 0xce, 0x01, 0xc3, 0x9c, 0x0e, 0xbf, 0x0d, 0x1f, 0x1c,
  0xb0, 0xfe, 0x20, 0x1f, 0x23, 0x2a, 0xf7, 0xca, 0x19, 0xe2, 0x0c, 0xf0,
  0x14, 0xe9, 0x15, 0x26, 0xf0, 0x1e, 0x19, 0xe0, 0x1d, 0x39, 0xca, 0xc2,
  0x02, 0x25, 0x55, 0xf4, 0x2b, 0xd0, 0x32, 0x0c, 0xfb, 0xe2, 0x40, 0xd3,
  0x8f, 0x09, 0x05, 0xc7, 0xe7, 0xda, 0xdf, 0xf6, 0x2c, 0x16, 0xe5, 0x05,
  0xfa, 0xfb, 0xf7, 0x04, 0xc3, 0x1e, 0xf4, 0xc6, 0x0c, 0xfd, 0xef, 0x0c,
  0x2b, 0xcf, 0x1c, 0xfd, 0x13, 0xe6, 0x16, 0xca, 0xb4, 0x14, 0xf7, 0xb4,
  0xe7, 0xfa, 0xfa, 0x18, 0x14, 0x81, 0x2f, 0xfb, 0x04, 0xb8, 0x28, 0x46,
  0xce, 0x29, 0x04, 0x8e, 0x5e, 0x0d, 0x90, 0x47, 0xa5, 0xf6, 0xf3, 0xf7,
  0x46, 0x74, 0xc1, 0xfa, 0xf5, 0x2d, 0xea, 0x03, 0x05, 0x1a, 0x91, 0x4d,
  0x06, 0x0c, 0xe0, 0x45, 0x0b, 0x2a, 0xa2, 0x92, 0x08, 0xe2, 0xb7, 0x31,
  0x19, 0x25, 0xe0, 0x69, 0xcf, 0xf3, 0xca, 0xc7, 0xdc, 0x19, 0xc8, 0x0d,
  0xef, 0x03, 0x45, 0x91, 0x22, 0x27, 0x82, 0x51, 0xf4, 0xfa, 0xd3, 0x21,
  0x3b, 0xe7, 0xc1, 0x07, 0x0c, 0xe6, 0x25, 0xe2, 0xfe, 0x1e, 0xdf, 0x05,
  0xbf, 0x0c, 0xd7, 0x2c, 0xf7, 0x3c, 0xe6, 0xef, 0x1f, 0xfe, 0x2a, 0x13,
  0x03, 0x40, 0x1b, 0xf1, 0xe8, 0xe7, 0x95, 0xf2, 0x0e, 0x29, 0x0d, 0x1d,
  0xf9, 0xe3, 0x57, 0xb4, 0x00, 0x2e, 0xfb, 0x24, 0x22, 0x15, 0x45, 0xba,
  0x27, 0x74, 0x3f, 0x16, 0x35, 0xfe, 0x46, 0x47, 0xd5, 0xe4, 0x35, 0x09,
  0xd9, 0x06, 0x58, 0x24, 0x03, 0xf0, 0x3c, 0x81, 0x42, 0x56, 0x25, 0x42,
  0xe1, 0x5d, 0x23, 0xe1, 0xab, 0xfc, 0x00, 0x53, 0xf8, 0xc7, 0xe9, 0x9f,
  0x39, 0xcb, 0xfb, 0x09, 0x5f, 0x33, 0x18, 0x11, 0x29, 0x1a, 0xfb, 0x19,
  0xf5, 0xd3, 0xb8, 0xfd, 0xfe, 0x03, 0xe4, 0x10, 0x31, 0xe4, 0xfc, 0x01,
  0xf1, 0x2e, 0x16, 0xfe, 0xe6, 0x0a, 0xcb, 0xef, 0x1a, 0x19, 0x02, 0xd0,
  0x00, 0xfc, 0x12, 0xec, 0xe0, 0x03, 0xdd, 0x17, 0x3a, 0xb3, 0xc0, 0xef,
  0x09, 0xda, 0xf2, 0x39, 0x49, 0x17, 0x10, 0x18, 0xd8, 0x05, 0xba, 0xf9,
  0xf3, 0xbc, 0x13, 0x1e, 0x11, 0x1a, 0x50, 0xef, 0xe8, 0xa4, 0xdd, 0xfc,
  0xfb, 0x2d, 0xee, 0xf3, 0x2f, 0xa2, 0x28, 0xf6, 0xf3, 0xdd, 0x75, 0x60,
  0x31, 0x17, 0x09, 0x12, 0x49, 0x95, 0xff, 0xa6, 0xfb, 0xd9, 0x0a, 0xff,
  0x1a, 0x32, 0x03, 0x04, 0xc8, 0xfc, 0xd8, 0x05, 0xff, 0x2a, 0xdd, 0x0b,
  0x4f, 0x81, 0xe5, 0x44, 0x31, 0xc3, 0x2a, 0x37, 0x02, 0x03, 0x01, 0x07,
  0xed, 0xcd, 0xf7, 0x11, 0x17, 0xe9, 0x1d, 0x0a, 0x16, 0xda, 0x00, 0x61,
  0xdd, 0x23, 0xd1, 0xfe, 0xde, 0xbe, 0x3f, 0x0f, 0x36, 0xe9, 0xdb, 0x1b,
  0xd2, 0xb6, 0x08, 0xaa, 0x2d, 0x1c, 0x4f, 0x07, 0x21, 0x55, 0xb6, 0x1b,
  0x3e, 0x30, 0xd5, 0x07, 0xf3, 0x0e, 0x13, 0xfe, 0x15, 0x1c, 0xcd, 0xd9,
  0xc7, 0xfc, 0x11, 0x1e, 0x29, 0xf2, 0x0f, 0x1b, 0xfb, 0xed, 0x2b, 0xdd,
  0x36, 0xe9, 0x81, 0x91, 0x36, 0xbe, 0x00, 0x09, 0xf1, 0x0d, 0xfa, 0x1b,
  0xdf, 0xb8, 0x2f, 0x11, 0x23, 0x37, 0x20, 0xdc, 0xfb, 0x03, 0xf3, 0x31,
  0x2a, 0xe7, 0xd6, 0x48, 0xe6, 0xf6, 0x40, 0xfe, 0x18, 0x31, 0xdc, 0xbf,
  0xf2, 0xf0, 0xbf, 0xec, 0x2b, 0xe3, 0xc6, 0x01, 0xd9, 0xdf, 0x3a, 0x16,
  0x24, 0xf5, 0xe3, 0xc2, 0x0c, 0x03, 0xcd, 0xc8, 0x0c, 0xef, 0x09, 0xf0,
  0x27, 0x1d, 0x4e, 0xf4, 0x4d, 0x21, 0xf1, 0xf3, 0xc3, 0x11, 0x0b, 0xd3,
  0x0d, 0xfa, 0xd8, 0x4a, 0x12, 0x1c, 0x5b, 0xd5, 0x0b, 0x18, 0xfd, 0xfb,
  0xe3, 0x3d, 0xa2, 0xaa, 0x0b, 0x5a, 0xff, 0x2d, 0xc8, 0x0b, 0x5c, 0xd9,
  0x3c, 0xe9, 0x12, 0xcc, 0xf4, 0x2b, 0xb7, 0x07, 0x1a, 0x4e, 0xda, 0xe4,
  0x0a, 0xfe, 0xff, 0xff, 0x04, 0x00, 0x00, 0x00, 0x40, 0x00, 0x00, 0x00,
  0x0b, 0xfe, 0xff, 0xff, 0xfa, 0xf5, 0xff, 0xff, 0xbb, 0x05, 0x00, 0x00,
  0xcf, 0x0e, 0x00, 0x00, 0x67, 0xfd, 0xff, 0xff, 0xf8, 0x11, 0x00, 0x00,
  0x7e, 0xeb, 0xff, 0xff, 0x95, 0x0e, 0x00, 0x00, 0x24, 0xb8, 0xff, 0xff,
  0x62, 0xdd, 0xff, 0xff, 0x3f, 0xea, 0xff, 0xff, 0x92, 0xea, 0xff, 0xff,
  0x84, 0x12, 0x00, 0x00, 0xec, 0xee, 0xff, 0xff, 0x00, 0xf1, 0xff, 0xff,
  0x48, 0xf2, 0xff, 0xff, 0x56, 0xfe, 0xff, 0xff, 0x04, 0x00, 0x00, 0x00,
  0xa0, 0x00, 0x00, 0x00, 0x1b, 0xa7, 0x1e, 0x04, 0xd7, 0xe1, 0x06, 0x15,
  0x0d, 0xfc, 0xac, 0x36, 0xec, 0xa6, 0x15, 0x15, 0xa0, 0x1d, 0x0b, 0x8d,
  0x04, 0xe7, 0x26, 0x18, 0xd0, 0xc1, 0x26, 0x24, 0xbf, 0xe8, 0x0e, 0x49,
  0xc3, 0xe4, 0x26, 0x13, 0xf1, 0x2b, 0xd8, 0x1d, 0x40, 0x07, 0x18, 0x00,
  0xcc, 0x0d, 0xd7, 0xc5, 0x11, 0x12, 0xde, 0x05, 0xa0, 0x27, 0xe8, 0xb2,
  0xea, 0x1f, 0x2c, 0x16, 0x04, 0x2d, 0xa4, 0x1f, 0xf3, 0xf2, 0x11, 0xf8,
  0x2f, 0x37, 0x38, 0x22, 0xa8, 0xa7, 0xca, 0xa3, 0x24, 0x12, 0x0c, 0x02,
  0x12, 0x1f, 0x90, 0xdb, 0x0e, 0xce, 0x25, 0x02, 0x1d, 0x2c, 0xf9, 0x12,
  0x0e, 0xef, 0xc7, 0x1b, 0xc1, 0xc4, 0xe6, 0x23, 0xde, 0x81, 0x13, 0x26,
  0xff, 0x26, 0x09, 0xf6, 0x2e, 0x27, 0x2b, 0xeb, 0x25, 0x18, 0x2e, 0x95,
  0x13, 0x0a, 0xc1, 0xde, 0x08, 0x07, 0x04, 0xe3, 0x83, 0x18, 0x19, 0x07,
  0x29, 0x10, 0xe8, 0x38, 0x1a, 0xe8, 0xc1, 0x10, 0xdd, 0xd3, 0x04, 0x25,
  0x25, 0xe7, 0xd5, 0xa5, 0x1d, 0xf5, 0x22, 0x03, 0x1e, 0xf8, 0xe4, 0xab,
  0x26, 0xd7, 0x0f, 0xc1, 0x30, 0xaf, 0x17, 0x02, 0x02, 0xff, 0xff, 0xff,
  0x04, 0x00, 0x00, 0x00, 0x28, 0x00, 0x00, 0x00, 0x13, 0x05, 0x00, 0x00,
  0xa2, 0x07, 0x00, 0x00, 0x27, 0x01, 0x00, 0x00, 0x29, 0xfe, 0xff, 0xff,
  0x74, 0xfa, 0xff, 0xff, 0xd3, 0xfd, 0xff, 0xff, 0xa7, 0xff, 0xff, 0xff,
  0xa8, 0xfa, 0xff, 0xff, 0x0e, 0x00, 0x00, 0x00, 0x63, 0x02, 0x00, 0x00,
  0x36, 0xff, 0xff, 0xff, 0x04, 0x00, 0x00, 0x00, 0x08, 0x00, 0x00, 0x00,
  0x01, 0x00, 0x00, 0x00, 0x02, 0x00, 0x00, 0x00, 0x28, 0xef, 0xff, 0xff,
  0x2c, 0xef, 0xff, 0xff, 0x0f, 0x00, 0x00, 0x00, 0x4d, 0x4c, 0x49, 0x52,
  0x20, 0x43, 0x6f, 0x6e, 0x76, 0x65, 0x72, 0x74, 0x65, 0x64, 0x2e, 0x00,
  0x01, 0x00, 0x00, 0x00, 0x14, 0x00, 0x00, 0x00, 0x00, 0x00, 0x0e, 0x00,
  0x18, 0x00, 0x14, 0x00, 0x10, 0x00, 0x0c, 0x00, 0x08, 0x00, 0x04, 0x00,
  0x0e, 0x00, 0x00, 0x00, 0x14, 0x00, 0x00, 0x00, 0x1c, 0x00, 0x00, 0x00,
  0x4c, 0x02, 0x00, 0x00, 0x50, 0x02, 0x00, 0x00, 0x54, 0x02, 0x00, 0x00,
  0x04, 0x00, 0x00, 0x00, 0x6d, 0x61, 0x69, 0x6e, 0x00, 0x00, 0x00, 0x00,
  0x09, 0x00, 0x00, 0x00, 0x14, 0x02, 0x00, 0x00, 0xb8, 0x01, 0x00, 0x00,
  0x64, 0x01, 0x00, 0x00, 0x20, 0x01, 0x00, 0x00, 0xcc, 0x00, 0x00, 0x00,
  0x98, 0x00, 0x00, 0x00, 0x60, 0x00, 0x00, 0x00, 0x24, 0x00, 0x00, 0x00,
  0x04, 0x00, 0x00, 0x00, 0x1a, 0xfe, 0xff, 0xff, 0x08, 0x00, 0x00, 0x00,
  0x0c, 0x00, 0x00, 0x00, 0x01, 0x00, 0x00, 0x00, 0x12, 0x00, 0x00, 0x00,
  0x01, 0x00, 0x00, 0x00, 0x11, 0x00, 0x00, 0x00, 0x92, 0xfe, 0xff, 0xff,
  0x1c, 0x00, 0x00, 0x00, 0x00, 0x00, 0x00, 0x09, 0x1c, 0x00, 0x00, 0x00,
  0x20, 0x00, 0x00, 0x00, 0x05, 0x00, 0x00, 0x00, 0x00, 0x00, 0x06, 0x00,
  0x08, 0x00, 0x04, 0x00, 0x06, 0x00, 0x00, 0x00, 0x00, 0x00, 0x80, 0x3f,
  0x01, 0x00, 0x00, 0x00, 0x11, 0x00, 0x00, 0x00, 0x01, 0x00, 0x00, 0x00,
  0x10, 0x00, 0x00, 0x00, 0xca, 0xfe, 0xff, 0xff, 0x14, 0x00, 0x00, 0x00,
  0x00, 0x00, 0x00, 0x08, 0x10, 0x00, 0x00, 0x00, 0x14, 0x00, 0x00, 0x00,
  0x04, 0x00, 0x00, 0x00, 0x14, 0xf0, 0xff, 0xff, 0x01, 0x00, 0x00, 0x00,
  0x10, 0x00, 0x00, 0x00, 0x03, 0x00, 0x00, 0x00, 0x0f, 0x00, 0x00, 0x00,
  0x03, 0x00, 0x00, 0x00, 0x02, 0x00, 0x00, 0x00, 0xfe, 0xfe, 0xff, 0xff,
  0x14, 0x00, 0x00, 0x00, 0x00, 0x00, 0x00, 0x1b, 0x10, 0x00, 0x00, 0x00,
  0x14, 0x00, 0x00, 0x00, 0x03, 0x00, 0x00, 0x00, 0x48, 0xf0, 0xff, 0xff,
  0x01, 0x00, 0x00, 0x00, 0x0f, 0x00, 0x00, 0x00, 0x02, 0x00, 0x00, 0x00,
  0x0e, 0x00, 0x00, 0x00, 0x01, 0x00, 0x00, 0x00, 0x2e, 0xff, 0xff, 0xff,
  0x24, 0x00, 0x00, 0x00, 0x00, 0x00, 0x00, 0x05, 0x34, 0x00, 0x00, 0x00,
  0x38, 0x00, 0x00, 0x00, 0x02, 0x00, 0x00, 0x00, 0x00, 0x00, 0x0e, 0x00,
  0x18, 0x00, 0x17, 0x00, 0x10, 0x00, 0x0c, 0x00, 0x08, 0x00, 0x04, 0x00,
  0x0e, 0x00, 0x00, 0x00, 0x02, 0x00, 0x00, 0x00, 0x02, 0x00, 0x00, 0x00,
  0x02, 0x00, 0x00, 0x00, 0x02, 0x00, 0x00, 0x00, 0x00, 0x00, 0x00, 0x01,
  0x01, 0x00, 0x00, 0x00, 0x0e, 0x00, 0x00, 0x00, 0x01, 0x00, 0x00, 0x00,
  0x0d, 0x00, 0x00, 0x00, 0x7e, 0xff, 0xff, 0xff, 0x14, 0x00, 0x00, 0x00,
  0x00, 0x00, 0x00, 0x01, 0x1c, 0x00, 0x00, 0x00, 0x20, 0x00, 0x00, 0x00,
  0x01, 0x00, 0x00, 0x00, 0x70, 0xff, 0xff, 0xff, 0x00, 0x00, 0x00, 0x01,
  0x01, 0x00, 0x00, 0x00, 0x01, 0x00, 0x00, 0x00, 0x01, 0x00, 0x00, 0x00,
  0x0d, 0x00, 0x00, 0x00, 0x03, 0x00, 0x00, 0x00, 0x0c, 0x00, 0x00, 0x00,
  0x05, 0x00, 0x00, 0x00, 0x04, 0x00, 0x00, 0x00, 0xbe, 0xff, 0xff, 0xff,
  0x14, 0x00, 0x00, 0x00, 0x00, 0x00, 0x00, 0x01, 0x1c, 0x00, 0x00, 0x00,
  0x20, 0x00, 0x00, 0x00, 0x01, 0x00, 0x00, 0x00, 0xb0, 0xff, 0xff, 0xff,
  0x00, 0x00, 0x00, 0x01, 0x01, 0x00, 0x00, 0x00, 0x01, 0x00, 0x00, 0x00,
  0x01, 0x00, 0x00, 0x00, 0x0c, 0x00, 0x00, 0x00, 0x03, 0x00, 0x00, 0x00,
  0x0b, 0x00, 0x00, 0x00, 0x07, 0x00, 0x00, 0x00, 0x06, 0x00, 0x00, 0x00,
  0x00, 0x00, 0x0e, 0x00, 0x18, 0x00, 0x14, 0x00, 0x10, 0x00, 0x0c, 0x00,
  0x0b, 0x00, 0x04, 0x00, 0x0e, 0x00, 0x00, 0x00, 0x20, 0x00, 0x00, 0x00,
  0x00, 0x00, 0x00, 0x01, 0x28, 0x00, 0x00, 0x00, 0x2c, 0x00, 0x00, 0x00,
  0x01, 0x00, 0x00, 0x00, 0x0c, 0x00, 0x10, 0x00, 0x00, 0x00, 0x0c, 0x00,
  0x08, 0x00, 0x07, 0x00, 0x0c, 0x00, 0x00, 0x00, 0x00, 0x00, 0x00, 0x01,
  0x02, 0x00, 0x00, 0x00, 0x02, 0x00, 0x00, 0x00, 0x01, 0x00, 0x00, 0x00,
  0x0b, 0x00, 0x00, 0x00, 0x03, 0x00, 0x00, 0x00, 0x0a, 0x00, 0x00, 0x00,
  0x09, 0x00, 0x00, 0x00, 0x08, 0x00, 0x00, 0x00, 0x00, 0x00, 0x0a, 0x00,
  0x0c, 0x00, 0x00, 0x00, 0x08, 0x00, 0x04, 0x00, 0x0a, 0x00, 0x00, 0x00,
  0x08, 0x00, 0x00, 0x00, 0x0c, 0x00, 0x00, 0x00, 0x01, 0x00, 0x00, 0x00,
  0x0a, 0x00, 0x00, 0x00, 0x01, 0x00, 0x00, 0x00, 0x00, 0x00, 0x00, 0x00,
  0x01, 0x00, 0x00, 0x00, 0x12, 0x00, 0x00, 0x00, 0x01, 0x00, 0x00, 0x00,
  0x00, 0x00, 0x00, 0x00, 0x13, 0x00, 0x00, 0x00, 0xa0, 0x0e, 0x00, 0x00,
  0x18, 0x0e, 0x00, 0x00, 0x8c, 0x0d, 0x00, 0x00, 0x20, 0x0d, 0x00, 0x00,
  0xec, 0x0b, 0x00, 0x00, 0xc0, 0x0a, 0x00, 0x00, 0x8c, 0x09, 0x00, 0x00,
  0x60, 0x08, 0x00, 0x00, 0x2c, 0x07, 0x00, 0x00, 0x00, 0x06, 0x00, 0x00,
  0x7c, 0x05, 0x00, 0x00, 0x88, 0x04, 0x00, 0x00, 0x8c, 0x03, 0x00, 0x00,
  0xb0, 0x02, 0x00, 0x00, 0x1c, 0x02, 0x00, 0x00, 0x90, 0x01, 0x00, 0x00,
  0xfc, 0x00, 0x00, 0x00, 0x80, 0x00, 0x00, 0x00, 0x04, 0x00, 0x00, 0x00,
  0xc2, 0xf1, 0xff, 0xff, 0x00, 0x00, 0x00, 0x01, 0x18, 0x00, 0x00, 0x00,
  0x20, 0x00, 0x00, 0x00, 0x3c, 0x00, 0x00, 0x00, 0x13, 0x00, 0x00, 0x00,
  0x00, 0x00, 0x00, 0x03, 0x50, 0x00, 0x00, 0x00, 0x02, 0x00, 0x00, 0x00,
  0xff, 0xff, 0xff, 0xff, 0x0a, 0x00, 0x00, 0x00, 0xa4, 0xf1, 0xff, 0xff,
  0x08, 0x00, 0x00, 0x00, 0x10, 0x00, 0x00, 0x00, 0x01, 0x00, 0x00, 0x00,
  0x00, 0x00, 0x00, 0x00, 0x00, 0x00, 0x00, 0x00, 0x01, 0x00, 0x00, 0x00,
  0x00, 0x00, 0x80, 0x3b, 0x19, 0x00, 0x00, 0x00, 0x53, 0x74, 0x61, 0x74,
  0x65, 0x66, 0x75, 0x6c, 0x50, 0x61, 0x72, 0x74, 0x69, 0x74, 0x69, 0x6f,
  0x6e, 0x65, 0x64, 0x43, 0x61, 0x6c, 0x6c, 0x3a, 0x30, 0x00, 0x00, 0x00,
  0x02, 0x00, 0x00, 0x00, 0x01, 0x00, 0x00, 0x00, 0x0a, 0x00, 0x00, 0x00,
  0x3a, 0xf2, 0xff, 0xff, 0x00, 0x00, 0x00, 0x01, 0x18, 0x00, 0x00, 0x00,
  0x20, 0x00, 0x00, 0x00, 0x3c, 0x00, 0x00, 0x00, 0x12, 0x00, 0x00, 0x00,
  0x00, 0x00, 0x00, 0x09, 0x50, 0x00, 0x00, 0x00, 0x02, 0x00, 0x00, 0x00,
  0xff, 0xff, 0xff, 0xff, 0x0a, 0x00, 0x00, 0x00, 0x1c, 0xf2, 0xff, 0xff,
  0x08, 0x00, 0x00, 0x00, 0x10, 0x00, 0x00, 0x00, 0x01, 0x00, 0x00, 0x00,
  0x80, 0xff, 0xff, 0xff, 0xff, 0xff, 0xff, 0xff, 0x01, 0x00, 0x00, 0x00,
  0x00, 0x00, 0x80, 0x3b, 0x1a, 0x00, 0x00, 0x00, 0x53, 0x74, 0x61, 0x74,
  0x65, 0x66, 0x75, 0x6c, 0x50, 0x61, 0x72, 0x74, 0x69, 0x74, 0x69, 0x6f,
  0x6e, 0x65, 0x64, 0x43, 0x61, 0x6c, 0x6c, 0x3a, 0x30, 0x31, 0x00, 0x00,
  0x02, 0x00, 0x00, 0x00, 0x01, 0x00, 0x00, 0x00, 0x0a, 0x00, 0x00, 0x00,
  0xb2, 0xf2, 0xff, 0xff, 0x00, 0x00, 0x00, 0x01, 0x18, 0x00, 0x00, 0x00,
  0x20, 0x00, 0x00, 0x00, 0x3c, 0x00, 0x00, 0x00, 0x11, 0x00, 0x00, 0x00,
  0x00, 0x00, 0x00, 0x09, 0x68, 0x00, 0x00, 0x00, 0x02, 0x00, 0x00, 0x00,
  0xff, 0xff, 0xff, 0xff, 0x0a, 0x00, 0x00, 0x00, 0x94, 0xf2, 0xff, 0xff,
  0x08, 0x00, 0x00, 0x00, 0x10, 0x00, 0x00, 0x00, 0x01, 0x00, 0x00, 0x00,
  0x28, 0x00, 0x00, 0x00, 0x00, 0x00, 0x00, 0x00, 0x01, 0x00, 0x00, 0x00,
  0x69, 0xbc, 0x15, 0x3e, 0x30, 0x00, 0x00, 0x00, 0x73, 0x65, 0x71, 0x75,
  0x65, 0x6e, 0x74, 0x69, 0x61, 0x6c, 0x2f, 0x64, 0x65, 0x6e, 0x73, 0x65,
  0x2f, 0x4d, 0x61, 0x74, 0x4d, 0x75, 0x6c, 0x3b, 0x73, 0x65, 0x71, 0x75,
  0x65, 0x6e, 0x74, 0x69, 0x61, 0x6c, 0x2f, 0x64, 0x65, 0x6e, 0x73, 0x65,
  0x2f, 0x42, 0x69, 0x61, 0x73, 0x41, 0x64, 0x64, 0x00, 0x00, 0x00, 0x00,
  0x02, 0x00, 0x00, 0x00, 0x01, 0x00, 0x00, 0x00, 0x0a, 0x00, 0x00, 0x00,
  0x42, 0xf3, 0xff, 0xff, 0x00, 0x00, 0x00, 0x01, 0x18, 0x00, 0x00, 0x00,
  0x20, 0x00, 0x00, 0x00, 0x3c, 0x00, 0x00, 0x00, 0x10, 0x00, 0x00, 0x00,
  0x00, 0x00, 0x00, 0x09, 0x60, 0x00, 0x00, 0x00, 0x02, 0x00, 0x00, 0x00,
  0xff, 0xff, 0xff, 0xff, 0x10, 0x00, 0x00, 0x00, 0x24, 0xf3, 0xff, 0xff,
  0x08, 0x00, 0x00, 0x00, 0x10, 0x00, 0x00, 0x00, 0x01, 0x00, 0x00, 0x00,
  0x80, 0xff, 0xff, 0xff, 0xff, 0xff, 0xff, 0xff, 0x01, 0x00, 0x00, 0x00,
  0x22, 0x0c, 0xab, 0x3c, 0x28, 0x00, 0x00, 0x00, 0x73, 0x65, 0x71, 0x75,
  0x65, 0x6e, 0x74, 0x69, 0x61, 0x6c, 0x2f, 0x67, 0x6c, 0x6f, 0x62, 0x61,
  0x6c, 0x5f, 0x61, 0x76, 0x65, 0x72, 0x61, 0x67, 0x65, 0x5f, 0x70, 0x6f,
  0x6f, 0x6c, 0x69, 0x6e, 0x67, 0x32, 0x64, 0x2f, 0x4d, 0x65, 0x61, 0x6e,
  0x00, 0x00, 0x00, 0x00, 0x02, 0x00, 0x00, 0x00, 0x01, 0x00, 0x00, 0x00,
  0x10, 0x00, 0x00, 0x00, 0xca, 0xf3, 0xff, 0xff, 0x00, 0x00, 0x00, 0x01,
  0x18, 0x00, 0x00, 0x00, 0x28, 0x00, 0x00, 0x00, 0x44, 0x00, 0x00, 0x00,
  0x0f, 0x00, 0x00, 0x00, 0x00, 0x00, 0x00, 0x09, 0x60, 0x00, 0x00, 0x00,
  0x04, 0x00, 0x00, 0x00, 0xff, 0xff, 0xff, 0xff, 0x07, 0x00, 0x00, 0x00,
  0x07, 0x00, 0x00, 0x00, 0x10, 0x00, 0x00, 0x00, 0xb4, 0xf3, 0xff, 0xff,
  0x08, 0x00, 0x00, 0x00, 0x10, 0x00, 0x00, 0x00, 0x01, 0x00, 0x00, 0x00,
  0x80, 0xff, 0xff, 0xff, 0xff, 0xff, 0xff, 0xff, 0x01, 0x00, 0x00, 0x00,
  0x8e, 0x55, 0xd2, 0x3d, 0x20, 0x00, 0x00, 0x00, 0x73, 0x65, 0x71, 0x75,
  0x65, 0x6e, 0x74, 0x69, 0x61, 0x6c, 0x2f, 0x6d, 0x61, 0x78, 0x5f, 0x70,
  0x6f, 0x6f, 0x6c, 0x69, 0x6e, 0x67, 0x32, 0x64, 0x2f, 0x4d, 0x61, 0x78,
  0x50, 0x6f, 0x6f, 0x6c, 0x00, 0x00, 0x00, 0x00, 0x04, 0x00, 0x00, 0x00,
  0x01, 0x00, 0x00, 0x00, 0x07, 0x00, 0x00, 0x00, 0x07, 0x00, 0x00, 0x00,
  0x10, 0x00, 0x00, 0x00, 0x5a, 0xf4, 0xff, 0xff, 0x00, 0x00, 0x00, 0x01,
  0x18, 0x00, 0x00, 0x00, 0x28, 0x00, 0x00, 0x00, 0x44, 0x00, 0x00, 0x00,
  0x0e, 0x00, 0x00, 0x00, 0x00, 0x00, 0x00, 0x09, 0xa8, 0x00, 0x00, 0x00,
  0x04, 0x00, 0x00, 0x00, 0xff, 0xff, 0xff, 0xff, 0x0e, 0x00, 0x00, 0x00,
  0x0e, 0x00, 0x00, 0x00, 0x10, 0x00, 0x00, 0x00, 0x44, 0xf4, 0xff, 0xff,
  0x08, 0x00, 0x00, 0x00, 0x10, 0x00, 0x00, 0x00, 0x01, 0x00, 0x00, 0x00,
  0x80, 0xff, 0xff, 0xff, 0xff, 0xff, 0xff, 0xff, 0x01, 0x00, 0x00, 0x00,
  0x8e, 0x55, 0xd2, 0x3d, 0x69, 0x00, 0x00, 0x00, 0x73, 0x65, 0x71, 0x75,
  0x65, 0x6e, 0x74, 0x69, 0x61, 0x6c, 0x2f, 0x61, 0x63, 0x74, 0x69, 0x76,
  0x61, 0x74, 0x69, 0x6f, 0x6e, 0x5f, 0x32, 0x2f, 0x52, 0x65, 0x6c, 0x75,
  0x3b, 0x73, 0x65, 0x71, 0x75, 0x65, 0x6e, 0x74, 0x69, 0x61, 0x6c, 0x2f,
  0x62, 0x61, 0x74, 0x63, 0x68, 0x5f, 0x6e, 0x6f, 0x72, 0x6d, 0x61, 0x6c,
  0x69, 0x7a, 0x61, 0x74, 0x69, 0x6f, 0x6e, 0x5f, 0x32, 0x2f, 0x46, 0x75,
  0x73, 0x65, 0x64, 0x42, 0x61, 0x74, 0x63, 0x68, 0x4e, 0x6f, 0x72, 0x6d,
  0x56, 0x33, 0x3b, 0x73, 0x65, 0x71, 0x75, 0x65, 0x6e, 0x74, 0x69, 0x61,
  0x6c, 0x2f, 0x63, 0x6f, 0x6e, 0x76, 0x32, 0x64, 0x5f, 0x32, 0x2f, 0x43,
  0x6f, 0x6e, 0x76, 0x32, 0x44, 0x00, 0x00, 0x00, 0x04, 0x00, 0x00, 0x00,
  0x01, 0x00, 0x00, 0x00, 0x0e, 0x00, 0x00, 0x00, 0x0e, 0x00, 0x00, 0x00,
  0x10, 0x00, 0x00, 0x00, 0x32, 0xf5, 0xff, 0xff, 0x00, 0x00, 0x00, 0x01,
  0x18, 0x00, 0x00, 0x00, 0x28, 0x00, 0x00, 0x00, 0x48, 0x00, 0x00, 0x00,
  0x0d, 0x00, 0x00, 0x00, 0x00, 0x00, 0x00, 0x09, 0xc8, 0x00, 0x00, 0x00,
  0x04, 0x00, 0x00, 0x00, 0xff, 0xff, 0xff, 0xff, 0x0e, 0x00, 0x00, 0x00,
  0x0e, 0x00, 0x00, 0x00, 0x10, 0x00, 0x00, 0x00, 0x1c, 0xf5, 0xff, 0xff,
  0x08, 0x00, 0x00, 0x00, 0x14, 0x00, 0x00, 0x00, 0x01, 0x00, 0x00, 0x00,
  0x80, 0xff, 0xff, 0xff, 0xff, 0xff, 0xff, 0xff, 0x00, 0x00, 0x00, 0x00,
  0x01, 0x00, 0x00, 0x00, 0xbc, 0x00, 0x6f, 0x3c, 0x84, 0x00, 0x00, 0x00,
  0x73, 0x65, 0x71, 0x75, 0x65, 0x6e, 0x74, 0x69, 0x61, 0x6c, 0x2f, 0x61,
  0x63, 0x74, 0x69, 0x76, 0x61, 0x74, 0x69, 0x6f, 0x6e, 0x5f, 0x31, 0x2f,
  0x52, 0x65, 0x6c, 0x75, 0x3b, 0x73, 0x65, 0x71, 0x75, 0x65, 0x6e, 0x74,
  0x69, 0x61, 0x6c, 0x2f, 0x62, 0x61, 0x74, 0x63, 0x68, 0x5f, 0x6e, 0x6f,
  0x72, 0x6d, 0x61, 0x6c, 0x69, 0x7a, 0x61, 0x74, 0x69, 0x6f, 0x6e, 0x5f,
  0x31, 0x2f, 0x46, 0x75, 0x73, 0x65, 0x64, 0x42, 0x61, 0x74, 0x63, 0x68,
  0x4e, 0x6f, 0x72, 0x6d, 0x56, 0x33, 0x3b, 0x73, 0x65, 0x71, 0x75, 0x65,
  0x6e, 0x74, 0x69, 0x61, 0x6c, 0x2f, 0x63, 0x6f, 0x6e, 0x76, 0x32, 0x64,
  0x5f, 0x32, 0x2f, 0x43, 0x6f, 0x6e, 0x76, 0x32, 0x44, 0x3b, 0x73, 0x65,
  0x71, 0x75, 0x65, 0x6e, 0x74, 0x69, 0x61, 0x6c, 0x2f, 0x63, 0x6f, 0x6e,
  0x76, 0x32, 0x64, 0x5f, 0x31, 0x2f, 0x43, 0x6f, 0x6e, 0x76, 0x32, 0x44,
  0x00, 0x00, 0x00, 0x00, 0x04, 0x00, 0x00, 0x00, 0x01, 0x00, 0x00, 0x00,
  0x0e, 0x00, 0x00, 0x00, 0x0e, 0x00, 0x00, 0x00, 0x10, 0x00, 0x00, 0x00,
  0x2a, 0xf6, 0xff, 0xff, 0x00, 0x00, 0x00, 0x01, 0x18, 0x00, 0x00, 0x00,
  0x28, 0x00, 0x00, 0x00, 0x48, 0x00, 0x00, 0x00, 0x0c, 0x00, 0x00, 0x00,
  0x00, 0x00, 0x00, 0x09, 0xc0, 0x00, 0x00, 0x00, 0x04, 0x00, 0x00, 0x00,
  0xff, 0xff, 0xff, 0xff, 0x0e, 0x00, 0x00, 0x00, 0x0e, 0x00, 0x00, 0x00,
  0x10, 0x00, 0x00, 0x00, 0x14, 0xf6, 0xff, 0xff, 0x08, 0x00, 0x00, 0x00,
  0x14, 0x00, 0x00, 0x00, 0x01, 0x00, 0x00, 0x00, 0x80, 0xff, 0xff, 0xff,
  0xff, 0xff, 0xff, 0xff, 0x00, 0x00, 0x00, 0x00, 0x01, 0x00, 0x00, 0x00,
  0xa9, 0x2c, 0xb8, 0x3c, 0x7e, 0x00, 0x00, 0x00, 0x73, 0x65, 0x71, 0x75,
  0x65, 0x6e, 0x74, 0x69, 0x61, 0x6c, 0x2f, 0x61, 0x63, 0x74, 0x69, 0x76,
  0x61, 0x74, 0x69, 0x6f, 0x6e, 0x2f, 0x52, 0x65, 0x6c, 0x75, 0x3b, 0x73,
  0x65, 0x71, 0x75, 0x65, 0x6e, 0x74, 0x69, 0x61, 0x6c, 0x2f, 0x62, 0x61,
  0x74, 0x63, 0x68, 0x5f, 0x6e, 0x6f, 0x72, 0x6d, 0x61, 0x6c, 0x69, 0x7a,
  0x61, 0x74, 0x69, 0x6f, 0x6e, 0x2f, 0x46, 0x75, 0x73, 0x65, 0x64, 0x42,
  0x61, 0x74, 0x63, 0x68, 0x4e, 0x6f, 0x72, 0x6d, 0x56, 0x33, 0x3b, 0x73,
  0x65, 0x71, 0x75, 0x65, 0x6e, 0x74, 0x69, 0x61, 0x6c, 0x2f, 0x63, 0x6f,
  0x6e, 0x76, 0x32, 0x64, 0x5f, 0x32, 0x2f, 0x43, 0x6f, 0x6e, 0x76, 0x32,
  0x44, 0x3b, 0x73, 0x65, 0x71, 0x75, 0x65, 0x6e, 0x74, 0x69, 0x61, 0x6c,
  0x2f, 0x63, 0x6f, 0x6e, 0x76, 0x32, 0x64, 0x2f, 0x43, 0x6f, 0x6e, 0x76,
  0x32, 0x44, 0x00, 0x00, 0x04, 0x00, 0x00, 0x00, 0x01, 0x00, 0x00, 0x00,
  0x0e, 0x00, 0x00, 0x00, 0x0e, 0x00, 0x00, 0x00, 0x10, 0x00, 0x00, 0x00,
  0x1a, 0xf7, 0xff, 0xff, 0x00, 0x00, 0x00, 0x01, 0x18, 0x00, 0x00, 0x00,
  0x28, 0x00, 0x00, 0x00, 0x48, 0x00, 0x00, 0x00, 0x0b, 0x00, 0x00, 0x00,
  0x00, 0x00, 0x00, 0x09, 0x50, 0x00, 0x00, 0x00, 0x04, 0x00, 0x00, 0x00,
  0xff, 0xff, 0xff, 0xff, 0x1c, 0x00, 0x00, 0x00, 0x1c, 0x00, 0x00, 0x00,
  0x01, 0x00, 0x00, 0x00, 0x04, 0xf7, 0xff, 0xff, 0x08, 0x00, 0x00, 0x00,
  0x14, 0x00, 0x00, 0x00, 0x01, 0x00, 0x00, 0x00, 0x80, 0xff, 0xff, 0xff,
  0xff, 0xff, 0xff, 0xff, 0x00, 0x00, 0x00, 0x00, 0x01, 0x00, 0x00, 0x00,
  0x81, 0x80, 0x80, 0x3b, 0x0c, 0x00, 0x00, 0x00, 0x74, 0x66, 0x6c, 0x2e,
  0x71, 0x75, 0x61, 0x6e, 0x74, 0x69, 0x7a, 0x65, 0x00, 0x00, 0x00, 0x00,
  0x04, 0x00, 0x00, 0x00, 0x01, 0x00, 0x00, 0x00, 0x1c, 0x00, 0x00, 0x00,
  0x1c, 0x00, 0x00, 0x00, 0x01, 0x00, 0x00, 0x00, 0x1e, 0xf8, 0xff, 0xff,
  0x00, 0x00, 0x00, 0x01, 0x14, 0x00, 0x00, 0x00, 0xe8, 0x00, 0x00, 0x00,
  0x0a, 0x00, 0x00, 0x00, 0x00, 0x00, 0x00, 0x09, 0xfc, 0x00, 0x00, 0x00,
  0x6c, 0xf7, 0xff, 0xff, 0x08, 0x00, 0x00, 0x00, 0x8c, 0x00, 0x00, 0x00,
  0x10, 0x00, 0x00, 0x00, 0x00, 0x00, 0x00, 0x00, 0x00, 0x00, 0x00, 0x00,
  0x00, 0x00, 0x00, 0x00, 0x00, 0x00, 0x00, 0x00, 0x00, 0x00, 0x00, 0x00,
  0x00, 0x00, 0x00, 0x00, 0x00, 0x00, 0x00, 0x00, 0x00, 0x00, 0x00, 0x00,
  0x00, 0x00, 0x00, 0x00, 0x00, 0x00, 0x00, 0x00, 0x00, 0x00, 0x00, 0x00,
  0x00, 0x00, 0x00, 0x00, 0x00, 0x00, 0x00, 0x00, 0x00, 0x00, 0x00, 0x00,
  0x00, 0x00, 0x00, 0x00, 0x00, 0x00, 0x00, 0x00, 0x00, 0x00, 0x00, 0x00,
  0x00, 0x00, 0x00, 0x00, 0x00, 0x00, 0x00, 0x00, 0x00, 0x00, 0x00, 0x00,
  0x00, 0x00, 0x00, 0x00, 0x00, 0x00, 0x00, 0x00, 0x00, 0x00, 0x00, 0x00,
  0x00, 0x00, 0x00, 0x00, 0x00, 0x00, 0x00, 0x00, 0x00, 0x00, 0x00, 0x00,
  0x00, 0x00, 0x00, 0x00, 0x00, 0x00, 0x00, 0x00, 0x00, 0x00, 0x00, 0x00,
  0x00, 0x00, 0x00, 0x00, 0x00, 0x00, 0x00, 0x00, 0x00, 0x00, 0x00, 0x00,
  0x00, 0x00, 0x00, 0x00, 0x10, 0x00, 0x00, 0x00, 0xe4, 0xac, 0x72, 0x3c,
  0x7d, 0xb5, 0xaa, 0x3c, 0x48, 0xc4, 0x0b, 0x3c, 0xf0, 0x81, 0x96, 0x3c,
  0xea, 0x7f, 0xa1, 0x3c, 0x12, 0x5b, 0xa5, 0x3c, 0x8f, 0x74, 0x81, 0x3c,
  0x67, 0x67, 0x95, 0x3b, 0xc4, 0x9c, 0xd8, 0x3c, 0xc5, 0xfa, 0xc5, 0x3c,
  0xdf, 0x3a, 0xa7, 0x3c, 0x22, 0x8a, 0x98, 0x3c, 0x57, 0x3e, 0x99, 0x3c,
  0x04, 0x5b, 0x83, 0x3c, 0xd7, 0xce, 0x7b, 0x3c, 0xab, 0x57, 0x89, 0x3c,
  0x18, 0x00, 0x00, 0x00, 0x73, 0x65, 0x71, 0x75, 0x65, 0x6e, 0x74, 0x69,
  0x61, 0x6c, 0x2f, 0x63, 0x6f, 0x6e, 0x76, 0x32, 0x64, 0x2f, 0x43, 0x6f,
  0x6e, 0x76, 0x32, 0x44, 0x00, 0x00, 0x00, 0x00, 0x04, 0x00, 0x00, 0x00,
  0x10, 0x00, 0x00, 0x00, 0x03, 0x00, 0x00, 0x00, 0x03, 0x00, 0x00, 0x00,
  0x01, 0x00, 0x00, 0x00, 0x46, 0xf9, 0xff, 0xff, 0x00, 0x00, 0x00, 0x01,
  0x14, 0x00, 0x00, 0x00, 0xe8, 0x00, 0x00, 0x00, 0x09, 0x00, 0x00, 0x00,
  0x00, 0x00, 0x00, 0x02, 0x10, 0x01, 0x00, 0x00, 0x94, 0xf8, 0xff, 0xff,
  0x08, 0x00, 0x00, 0x00, 0x8c, 0x00, 0x00, 0x00, 0x10, 0x00, 0x00, 0x00,
  0x00, 0x00, 0x00, 0x00, 0x00, 0x00, 0x00, 0x00, 0x00, 0x00, 0x00, 0x00,
  0x00, 0x00, 0x00, 0x00, 0x00, 0x00, 0x00, 0x00, 0x00, 0x00, 0x00, 0x00,
  0x00, 0x00, 0x00, 0x00, 0x00, 0x00, 0x00, 0x00, 0x00, 0x00, 0x00, 0x00,
  0x00, 0x00, 0x00, 0x00, 0x00, 0x00, 0x00, 0x00, 0x00, 0x00, 0x00, 0x00,
  0x00, 0x00, 0x00, 0x00, 0x00, 0x00, 0x00, 0x00, 0x00, 0x00, 0x00, 0x00,
  0x00, 0x00, 0x00, 0x00, 0x00, 0x00, 0x00, 0x00, 0x00, 0x00, 0x00, 0x00,
  0x00, 0x00, 0x00, 0x00, 0x00, 0x00, 0x00, 0x00, 0x00, 0x00, 0x00, 0x00,
  0x00, 0x00, 0x00, 0x00, 0x00, 0x00, 0x00, 0x00, 0x00, 0x00, 0x00, 0x00,
  0x00, 0x00, 0x00, 0x00, 0x00, 0x00, 0x00, 0x00, 0x00, 0x00, 0x00, 0x00,
  0x00, 0x00, 0x00, 0x00, 0x00, 0x00, 0x00, 0x00, 0x00, 0x00, 0x00, 0x00,
  0x00, 0x00, 0x00, 0x00, 0x00, 0x00, 0x00, 0x00, 0x00, 0x00, 0x00, 0x00,
  0x10, 0x00, 0x00, 0x00, 0x85, 0xa0, 0x73, 0x38, 0xdf, 0x60, 0xab, 0x38,
  0x99, 0x50, 0x0c, 0x38, 0x0a, 0x19, 0x97, 0x38, 0x0d, 0x22, 0xa2, 0x38,
  0x14, 0x01, 0xa6, 0x38, 0x86, 0xf6, 0x81, 0x38, 0x65, 0xfd, 0x95, 0x37,
  0x3b, 0x76, 0xd9, 0x38, 0x87, 0xc1, 0xc6, 0x38, 0xc2, 0xe2, 0xa7, 0x38,
  0x46, 0x23, 0x99, 0x38, 0x30, 0xd8, 0x99, 0x38, 0xe3, 0xde, 0x83, 0x38,
  0xa4, 0xcb, 0x7c, 0x38, 0x8d, 0xe1, 0x89, 0x38, 0x2f, 0x00, 0x00, 0x00,
  0x73, 0x65, 0x71, 0x75, 0x65, 0x6e, 0x74, 0x69, 0x61, 0x6c, 0x2f, 0x62,
  0x61, 0x74, 0x63, 0x68, 0x5f, 0x6e, 0x6f, 0x72, 0x6d, 0x61, 0x6c, 0x69,
  0x7a, 0x61, 0x74, 0x69, 0x6f, 0x6e, 0x2f, 0x46, 0x75, 0x73, 0x65, 0x64,
  0x42, 0x61, 0x74, 0x63, 0x68, 0x4e, 0x6f, 0x72, 0x6d, 0x56, 0x33, 0x00,
  0x01, 0x00, 0x00, 0x00, 0x10, 0x00, 0x00, 0x00, 0x76, 0xfa, 0xff, 0xff,
  0x00, 0x00, 0x00, 0x01, 0x14, 0x00, 0x00, 0x00, 0xe8, 0x00, 0x00, 0x00,
  0x08, 0x00, 0x00, 0x00, 0x00, 0x00, 0x00, 0x09, 0xfc, 0x00, 0x00, 0x00,
  0xc4, 0xf9, 0xff, 0xff, 0x08, 0x00, 0x00, 0x00, 0x8c, 0x00, 0x00, 0x00,
  0x10, 0x00, 0x00, 0x00, 0x00, 0x00, 0x00, 0x00, 0x00, 0x00, 0x00, 0x00,
  0x00, 0x00, 0x00, 0x00, 0x00, 0x00, 0x00, 0x00, 0x00, 0x00, 0x00, 0x00,
  0x00, 0x00, 0x00, 0x00, 0x00, 0x00, 0x00, 0x00, 0x00, 0x00, 0x00, 0x00,
  0x00, 0x00, 0x00, 0x00, 0x00, 0x00, 0x00, 0x00, 0x00, 0x00, 0x00, 0x00,
  0x00, 0x00, 0x00, 0x00, 0x00, 0x00, 0x00, 0x00, 0x00, 0x00, 0x00, 0x00,
  0x00, 0x00, 0x00, 0x00, 0x00, 0x00, 0x00, 0x00, 0x00, 0x00, 0x00, 0x00,
  0x00, 0x00, 0x00, 0x00, 0x00, 0x00, 0x00, 0x00, 0x00, 0x00, 0x00, 0x00,
  0x00, 0x00, 0x00, 0x00, 0x00, 0x00, 0x00, 0x00, 0x00, 0x00, 0x00, 0x00,
  0x00, 0x00, 0x00, 0x00, 0x00, 0x00, 0x00, 0x00, 0x00, 0x00, 0x00, 0x00,
  0x00, 0x00, 0x00, 0x00, 0x00, 0x00, 0x00, 0x00, 0x00, 0x00, 0x00, 0x00,
  0x00, 0x00, 0x00, 0x00, 0x00, 0x00, 0x00, 0x00, 0x00, 0x00, 0x00, 0x00,
  0x00, 0x00, 0x00, 0x00, 0x10, 0x00, 0x00, 0x00, 0x98, 0xa0, 0x75, 0x3b,
  0x16, 0x16, 0x46, 0x3b, 0xd6, 0xd6, 0x6f, 0x3b, 0x28, 0xd4, 0x30, 0x3b,
  0xaa, 0xcf, 0x41, 0x3b, 0x21, 0xee, 0x51, 0x3b, 0x21, 0x1a, 0xa4, 0x3b,
  0x16, 0xb8, 0x28, 0x3b, 0xbe, 0x7c, 0x73, 0x3b, 0x52, 0xef, 0x50, 0x3b,
  0xd4, 0x0e, 0x48, 0x3b, 0x30, 0xf6, 0x78, 0x3b, 0xf4, 0xcb, 0x63, 0x3b,
  0x9d, 0x40, 0x77, 0x3b, 0xa7, 0xa5, 0x30, 0x3b, 0xc9, 0x3e, 0x26, 0x3b,
  0x1a, 0x00, 0x00, 0x00, 0x73, 0x65, 0x71, 0x75, 0x65, 0x6e, 0x74, 0x69,
  0x61, 0x6c, 0x2f, 0x63, 0x6f, 0x6e, 0x76, 0x32, 0x64, 0x5f, 0x31, 0x2f,
  0x43, 0x6f, 0x6e, 0x76, 0x32, 0x44, 0x00, 0x00, 0x04, 0x00, 0x00, 0x00,
  0x10, 0x00, 0x00, 0x00, 0x03, 0x00, 0x00, 0x00, 0x03, 0x00, 0x00, 0x00,
  0x10, 0x00, 0x00, 0x00, 0x9e, 0xfb, 0xff, 0xff, 0x00, 0x00, 0x00, 0x01,
  0x14, 0x00, 0x00, 0x00, 0xe4, 0x00, 0x00, 0x00, 0x07, 0x00, 0x00, 0x00,
  0x00, 0x00, 0x00, 0x02, 0x10, 0x01, 0x00, 0x00, 0xec, 0xfa, 0xff, 0xff,
  0x08, 0x00, 0x00, 0x00, 0x88, 0x00, 0x00, 0x00, 0x10, 0x00, 0x00, 0x00,
  0x00, 0x00, 0x00, 0x00, 0x00, 0x00, 0x00, 0x00, 0x00, 0x00, 0x00, 0x00,
  0x00, 0x00, 0x00, 0x00, 0x00, 0x00, 0x00, 0x00, 0x00, 0x00, 0x00, 0x00,
  0x00, 0x00, 0x00, 0x00, 0x00, 0x00, 0x00, 0x00, 0x00, 0x00, 0x00, 0x00,
  0x00, 0x00, 0x00, 0x00, 0x00, 0x00, 0x00, 0x00, 0x00, 0x00, 0x00, 0x00,
  0x00, 0x00, 0x00, 0x00, 0x00, 0x00, 0x00, 0x00, 0x00, 0x00, 0x00, 0x00,
  0x00, 0x00, 0x00, 0x00, 0x00, 0x00, 0x00, 0x00, 0x00, 0x00, 0x00, 0x00,
  0x00, 0x00, 0x00, 0x00, 0x00, 0x00, 0x00, 0x00, 0x00, 0x00, 0x00, 0x00,
  0x00, 0x00, 0x00, 0x00, 0x00, 0x00, 0x00, 0x00, 0x00, 0x00, 0x00, 0x00,
  0x00, 0x00, 0x00, 0x00, 0x00, 0x00, 0x00, 0x00, 0x00, 0x00, 0x00, 0x00,
  0x00, 0x00, 0x00, 0x00, 0x00, 0x00, 0x00, 0x00, 0x00, 0x00, 0x00, 0x00,
  0x00, 0x00, 0x00, 0x00, 0x00, 0x00, 0x00, 0x00, 0x10, 0x00, 0x00, 0x00,
  0x47, 0xb6, 0xb0, 0x38, 0x6e, 0x82, 0x8e, 0x38, 0x41, 0x8c, 0xac, 0x38,
  0xac, 0x6e, 0x7e, 0x38, 0x12, 0x6f, 0x8b, 0x38, 0xc7, 0x07, 0x97, 0x38,
  0xd1, 0x1e, 0xec, 0x38, 0x7e, 0xc3, 0x72, 0x38, 0x23, 0x2c, 0xaf, 0x38,
  0x76, 0x50, 0x96, 0x38, 0x8f, 0xed, 0x8f, 0x38, 0x61, 0x1c, 0xb3, 0x38,
  0x55, 0xe2, 0xa3, 0x38, 0x93, 0xe1, 0xb1, 0x38, 0xc2, 0x2b, 0x7e, 0x38,
  0x42, 0x34, 0x6f, 0x38, 0x31, 0x00, 0x00, 0x00, 0x73, 0x65, 0x71, 0x75,
  0x65, 0x6e, 0x74, 0x69, 0x61, 0x6c, 0x2f, 0x62, 0x61, 0x74, 0x63, 0x68,
  0x5f, 0x6e, 0x6f, 0x72, 0x6d, 0x61, 0x6c, 0x69, 0x7a, 0x61, 0x74, 0x69,
  0x6f, 0x6e, 0x5f, 0x31, 0x2f, 0x46, 0x75, 0x73, 0x65, 0x64, 0x42, 0x61,
  0x74, 0x63, 0x68, 0x4e, 0x6f, 0x72, 0x6d, 0x56, 0x33, 0x00, 0x00, 0x00,
  0x01, 0x00, 0x00, 0x00, 0x10, 0x00, 0x00, 0x00, 0xce, 0xfc, 0xff, 0xff,
  0x00, 0x00, 0x00, 0x01, 0x14, 0x00, 0x00, 0x00, 0xe8, 0x00, 0x00, 0x00,
  0x06, 0x00, 0x00, 0x00, 0x00, 0x00, 0x00, 0x09, 0xfc, 0x00, 0x00, 0x00,
  0x1c, 0xfc, 0xff, 0xff, 0x08, 0x00, 0x00, 0x00, 0x8c, 0x00, 0x00, 0x00,
  0x10, 0x00, 0x00, 0x00, 0x00, 0x00, 0x00, 0x00, 0x00, 0x00, 0x00, 0x00,
  0x00, 0x00, 0x00, 0x00, 0x00, 0x00, 0x00, 0x00, 0x00, 0x00, 0x00, 0x00,
  0x00, 0x00, 0x00, 0x00, 0x00, 0x00, 0x00, 0x00, 0x00, 0x00, 0x00, 0x00,
  0x00, 0x00, 0x00, 0x00, 0x00, 0x00, 0x00, 0x00, 0x00, 0x00, 0x00, 0x00,
  0x00, 0x00, 0x00, 0x00, 0x00, 0x00, 0x00, 0x00, 0x00, 0x00, 0x00, 0x00,
  0x00, 0x00, 0x00, 0x00, 0x00, 0x00, 0x00, 0x00, 0x00, 0x00, 0x00, 0x00,
  0x00, 0x00, 0x00, 0x00, 0x00, 0x00, 0x00, 0x00, 0x00, 0x00, 0x00, 0x00,
  0x00, 0x00, 0x00, 0x00, 0x00, 0x00, 0x00, 0x00, 0x00, 0x00, 0x00, 0x00,
  0x00, 0x00, 0x00, 0x00, 0x00, 0x00, 0x00, 0x00, 0x00, 0x00, 0x00, 0x00,
  0x00, 0x00, 0x00, 0x00, 0x00, 0x00, 0x00, 0x00, 0x00, 0x00, 0x00, 0x00,
  0x00, 0x00, 0x00, 0x00, 0x00, 0x00, 0x00, 0x00, 0x00, 0x00, 0x00, 0x00,
  0x00, 0x00, 0x00, 0x00, 0x10, 0x00, 0x00, 0x00, 0xbc, 0x8e, 0xd6, 0x3c,
  0xfd, 0x5e, 0xc8, 0x3c, 0xe1, 0x18, 0x16, 0x3d, 0x4c, 0xe5, 0xc3, 0x3c,
  0xe5, 0xb0, 0xd7, 0x3c, 0xa3, 0x00, 0xda, 0x3c, 0x1f, 0xcc, 0xf6, 0x3c,
  0xea, 0x9c, 0xee, 0x3c, 0xb5, 0xfd, 0x9e, 0x3c, 0x0b, 0x89, 0xe4, 0x3c,
  0x7c, 0x1c, 0xc3, 0x3c, 0x4d, 0x58, 0xe1, 0x3c, 0x23, 0x6e, 0xe6, 0x3c,
  0x18, 0x41, 0x97, 0x3c, 0x2d, 0x67, 0x07, 0x3d, 0x62, 0xce, 0xc1, 0x3c,
  0x1a, 0x00, 0x00, 0x00, 0x73, 0x65, 0x71, 0x75, 0x65, 0x6e, 0x74, 0x69,
  0x61, 0x6c, 0x2f, 0x63, 0x6f, 0x6e, 0x76, 0x32, 0x64, 0x5f, 0x32, 0x2f,
  0x43, 0x6f, 0x6e, 0x76, 0x32, 0x44, 0x00, 0x00, 0x04, 0x00, 0x00, 0x00,
  0x10, 0x00, 0x00, 0x00, 0x03, 0x00, 0x00, 0x00, 0x03, 0x00, 0x00, 0x00,
  0x10, 0x00, 0x00, 0x00, 0xf6, 0xfd, 0xff, 0xff, 0x00, 0x00, 0x00, 0x01,
  0x14, 0x00, 0x00, 0x00, 0xe4, 0x00, 0x00, 0x00, 0x05, 0x00, 0x00, 0x00,
  0x00, 0x00, 0x00, 0x02, 0x10, 0x01, 0x00, 0x00, 0x44, 0xfd, 0xff, 0xff,
  0x08, 0x00, 0x00, 0x00, 0x88, 0x00, 0x00, 0x00, 0x10, 0x00, 0x00, 0x00,
  0x00, 0x00, 0x00, 0x00, 0x00, 0x00, 0x00, 0x00, 0x00, 0x00, 0x00, 0x00,
  0x00, 0x00, 0x00, 0x00, 0x00, 0x00, 0x00, 0x00, 0x00, 0x00, 0x00, 0x00,
  0x00, 0x00, 0x00, 0x00, 0x00, 0x00, 0x00, 0x00, 0x00, 0x00, 0x00, 0x00,
  0x00, 0x00, 0x00, 0x00, 0x00, 0x00, 0x00, 0x00, 0x00, 0x00, 0x00, 0x00,
  0x00, 0x00, 0x00, 0x00, 0x00, 0x00, 0x00, 0x00, 0x00, 0x00, 0x00, 0x00,
  0x00, 0x00, 0x00, 0x00, 0x00, 0x00, 0x00, 0x00, 0x00, 0x00, 0x00, 0x00,
  0x00, 0x00, 0x00, 0x00, 0x00, 0x00, 0x00, 0x00, 0x00, 0x00, 0x00, 0x00,
  0x00, 0x00, 0x00, 0x00, 0x00, 0x00, 0x00, 0x00, 0x00, 0x00, 0x00, 0x00,
  0x00, 0x00, 0x00, 0x00, 0x00, 0x00, 0x00, 0x00, 0x00, 0x00, 0x00, 0x00,
  0x00, 0x00, 0x00, 0x00, 0x00, 0x00, 0x00, 0x00, 0x00, 0x00, 0x00, 0x00,
  0x00, 0x00, 0x00, 0x00, 0x00, 0x00, 0x00, 0x00, 0x10, 0x00, 0x00, 0x00,
  0xdf, 0x4f, 0xc8, 0x39, 0x41, 0x11, 0xbb, 0x39, 0xa8, 0x21, 0x0c, 0x3a,
  0xa2, 0xe3, 0xb6, 0x39, 0xc4, 0x5e, 0xc9, 0x39, 0x38, 0x87, 0xcb, 0x39,
  0x46, 0x69, 0xe6, 0x39, 0x2e, 0xc5, 0xde, 0x39, 0x51, 0x6f, 0x94, 0x39,
  0x99, 0x5c, 0xd5, 0x39, 0x27, 0x28, 0xb6, 0x39, 0x15, 0x62, 0xd2, 0x39,
  0x7c, 0x21, 0xd7, 0x39, 0x34, 0x36, 0x8d, 0x39, 0x6d, 0xd3, 0xfc, 0x39,
  0x3c, 0xf0, 0xb4, 0x39, 0x31, 0x00, 0x00, 0x00, 0x73, 0x65, 0x71, 0x75,
  0x65, 0x6e, 0x74, 0x69, 0x61, 0x6c, 0x2f, 0x62, 0x61, 0x74, 0x63, 0x68,
  0x5f, 0x6e, 0x6f, 0x72, 0x6d, 0x61, 0x6c, 0x69, 0x7a, 0x61, 0x74, 0x69,
  0x6f, 0x6e, 0x5f, 0x32, 0x2f, 0x46, 0x75, 0x73, 0x65, 0x64, 0x42, 0x61,
  0x74, 0x63, 0x68, 0x4e, 0x6f, 0x72, 0x6d, 0x56, 0x33, 0x00, 0x00, 0x00,
  0x01, 0x00, 0x00, 0x00, 0x10, 0x00, 0x00, 0x00, 0x26, 0xff, 0xff, 0xff,
  0x00, 0x00, 0x00, 0x01, 0x14, 0x00, 0x00, 0x00, 0x34, 0x00, 0x00, 0x00,
  0x04, 0x00, 0x00, 0x00, 0x00, 0x00, 0x00, 0x09, 0x44, 0x00, 0x00, 0x00,
  0x74, 0xfe, 0xff, 0xff, 0x08, 0x00, 0x00, 0x00, 0x14, 0x00, 0x00, 0x00,
  0x01, 0x00, 0x00, 0x00, 0x00, 0x00, 0x00, 0x00, 0x00, 0x00, 0x00, 0x00,
  0x00, 0x00, 0x00, 0x00, 0x01, 0x00, 0x00, 0x00, 0x94, 0x08, 0xf3, 0x3c,
  0x17, 0x00, 0x00, 0x00, 0x73, 0x65, 0x71, 0x75, 0x65, 0x6e, 0x74, 0x69,
  0x61, 0x6c, 0x2f, 0x64, 0x65, 0x6e, 0x73, 0x65, 0x2f, 0x4d, 0x61, 0x74,
  0x4d, 0x75, 0x6c, 0x00, 0x02, 0x00, 0x00, 0x00, 0x0a, 0x00, 0x00, 0x00,
  0x10, 0x00, 0x00, 0x00, 0x8e, 0xff, 0xff, 0xff, 0x00, 0x00, 0x00, 0x01,
  0x14, 0x00, 0x00, 0x00, 0x30, 0x00, 0x00, 0x00, 0x03, 0x00, 0x00, 0x00,
  0x00, 0x00, 0x00, 0x02, 0x50, 0x00, 0x00, 0x00, 0xdc, 0xfe, 0xff, 0xff,
  0x08, 0x00, 0x00, 0x00, 0x10, 0x00, 0x00, 0x00, 0x01, 0x00, 0x00, 0x00,
  0x00, 0x00, 0x00, 0x00, 0x00, 0x00, 0x00, 0x00, 0x01, 0x00, 0x00, 0x00,
  0x40, 0x62, 0x22, 0x3a, 0x27, 0x00, 0x00, 0x00, 0x73, 0x65, 0x71, 0x75,
  0x65, 0x6e, 0x74, 0x69, 0x61, 0x6c, 0x2f, 0x64, 0x65, 0x6e, 0x73, 0x65,
  0x2f, 0x42, 0x69, 0x61, 0x73, 0x41, 0x64, 0x64, 0x2f, 0x52, 0x65, 0x61,
  0x64, 0x56, 0x61, 0x72, 0x69, 0x61, 0x62, 0x6c, 0x65, 0x4f, 0x70, 0x00,
  0x01, 0x00, 0x00, 0x00, 0x0a, 0x00, 0x00, 0x00, 0x00, 0x00, 0x16, 0x00,
  0x1c, 0x00, 0x18, 0x00, 0x17, 0x00, 0x10, 0x00, 0x0c, 0x00, 0x08, 0x00,
  0x00, 0x00, 0x00, 0x00, 0x00, 0x00, 0x07, 0x00, 0x16, 0x00, 0x00, 0x00,
  0x00, 0x00, 0x00, 0x01, 0x18, 0x00, 0x00, 0x00, 0x18, 0x00, 0x00, 0x00,
  0x02, 0x00, 0x00, 0x00, 0x00, 0x00, 0x00, 0x02, 0x4c, 0x00, 0x00, 0x00,
  0x04, 0x00, 0x04, 0x00, 0x04, 0x00, 0x00, 0x00, 0x3a, 0x00, 0x00, 0x00,
  0x73, 0x65, 0x71, 0x75, 0x65, 0x6e, 0x74, 0x69, 0x61, 0x6c, 0x2f, 0x67,
  0x6c, 0x6f, 0x62, 0x61, 0x6c, 0x5f, 0x61, 0x76, 0x65, 0x72, 0x61, 0x67,
  0x65, 0x5f, 0x70, 0x6f, 0x6f, 0x6c, 0x69, 0x6e, 0x67, 0x32, 0x64, 0x2f,
  0x4d, 0x65, 0x61, 0x6e, 0x2f, 0x72, 0x65, 0x64, 0x75, 0x63, 0x74, 0x69,
  0x6f, 0x6e, 0x5f, 0x69, 0x6e, 0x64, 0x69, 0x63, 0x65, 0x73, 0x00, 0x00,
  0x01, 0x00, 0x00, 0x00, 0x02, 0x00, 0x00, 0x00, 0x00, 0x00, 0x16, 0x00,
  0x20, 0x00, 0x1c, 0x00, 0x1b, 0x00, 0x14, 0x00, 0x10, 0x00, 0x0c, 0x00,
  0x00, 0x00, 0x00, 0x00, 0x08, 0x00, 0x07, 0x00, 0x16, 0x00, 0x00, 0x00,
  0x00, 0x00, 0x00, 0x01, 0x18, 0x00, 0x00, 0x00, 0x34, 0x00, 0x00, 0x00,
  0x50, 0x00, 0x00, 0x00, 0x01, 0x00, 0x00, 0x00, 0x00, 0x00, 0x00, 0x03,
  0x68, 0x00, 0x00, 0x00, 0x04, 0x00, 0x00, 0x00, 0xff, 0xff, 0xff, 0xff,
  0x1c, 0x00, 0x00, 0x00, 0x1c, 0x00, 0x00, 0x00, 0x01, 0x00, 0x00, 0x00,
  0x0c, 0x00, 0x0c, 0x00, 0x00, 0x00, 0x00, 0x00, 0x08, 0x00, 0x04, 0x00,
  0x0c, 0x00, 0x00, 0x00, 0x08, 0x00, 0x00, 0x00, 0x10, 0x00, 0x00, 0x00,
  0x01, 0x00, 0x00, 0x00, 0x00, 0x00, 0x00, 0x00, 0x00, 0x00, 0x00, 0x00,
  0x01, 0x00, 0x00, 0x00, 0x81, 0x80, 0x80, 0x3b, 0x1e, 0x00, 0x00, 0x00,
  0x73, 0x65, 0x72, 0x76, 0x69, 0x6e, 0x67, 0x5f, 0x64, 0x65, 0x66, 0x61,
  0x75, 0x6c, 0x74, 0x5f, 0x63, 0x6f, 0x6e, 0x76, 0x32, 0x64, 0x5f, 0x69,
  0x6e, 0x70, 0x75, 0x74, 0x3a, 0x30, 0x00, 0x00, 0x04, 0x00, 0x00, 0x00,
  0x01, 0x00, 0x00, 0x00, 0x1c, 0x00, 0x00, 0x00, 0x1c, 0x00, 0x00, 0x00,
  0x01, 0x00, 0x00, 0x00, 0x06, 0x00, 0x00, 0x00, 0x80, 0x00, 0x00, 0x00,
  0x60, 0x00, 0x00, 0x00, 0x40, 0x00, 0x00, 0x00, 0x2c, 0x00, 0x00, 0x00,
  0x18, 0x00, 0x00, 0x00, 0x04, 0x00, 0x00, 0x00, 0xc0, 0xff, 0xff, 0xff,
  0x19, 0x00, 0x00, 0x00, 0x02, 0x00, 0x00, 0x00, 0x00, 0x00, 0x00, 0x19,
  0xd0, 0xff, 0xff, 0xff, 0x09, 0x00, 0x00, 0x00, 0x04, 0x00, 0x00, 0x00,
  0x00, 0x00, 0x00, 0x09, 0xe0, 0xff, 0xff, 0xff, 0x28, 0x00, 0x00, 0x00,
  0x02, 0x00, 0x00, 0x00, 0x00, 0x00, 0x00, 0x28, 0xf0, 0xff, 0xff, 0xff,
  0x11, 0x00, 0x00, 0x00, 0x02, 0x00, 0x00, 0x00, 0x00, 0x00, 0x00, 0x11,
  0x0c, 0x00, 0x10, 0x00, 0x0f, 0x00, 0x00, 0x00, 0x08, 0x00, 0x04, 0x00,
  0x0c, 0x00, 0x00, 0x00, 0x03, 0x00, 0x00, 0x00, 0x03, 0x00, 0x00, 0x00,
  0x00, 0x00, 0x00, 0x03, 0x0c, 0x00, 0x0c, 0x00, 0x0b, 0x00, 0x00, 0x00,
  0x00, 0x00, 0x04, 0x00, 0x0c, 0x00, 0x00, 0x00, 0x72, 0x00, 0x00, 0x00,
  0x00, 0x00, 0x00, 0x72
};
const unsigned int written_digit_recognition_cnn_8bit_tflite_len = 10504;
